<unk>	0
<s>	0
</s>	0
,	-1.80134
,*,*,*,*	-2.411
,*,	-2.59364
▁	-2.90666
F	-3.08605
T	-3.11424
▁NNG	-3.5982
/	-3.68875
ETM	-4.2217
,*,*,*	-4.39993
/*	-4.40096
/*+	-4.45616
VV	-4.56007
+	-4.60047
f	-4.6491
In	-4.64964
lect	-4.64971
▁VV	-4.68319
▁S	-4.94057
EC	-5.06157
EF	-5.14234
NNG	-5.17313
JKO	-5.29411
▁EC	-5.35317
행위	-5.37282
▁JKB	-5.39178
하	-5.39247
Y	-5.45456
부사	-5.45689
▁NNP	-5.50346
ᆫ	-5.52677
S	-5.53295
▁EO	-5.60401
을	-5.66711
이	-5.69705
의	-5.69951
▁JX	-5.74743
▁SF	-5.76006
JKG	-5.77124
는	-5.78242
▁을	-5.79013
인명	-5.82744
▁의	-5.84661
XSV	-5.85249
▁는	-5.91293
,*,*,	-5.92005
Comp	-5.92101
ound	-5.92101
▁XSV	-5.93777
JKS	-5.97953
C	-5.99965
XSA	-6.02094
▁ETM	-6.02268
▁MAG	-6.02664
▁.	-6.03297
|	-6.14829
성	-6.1722
가	-6.18688
▁이	-6.21524
분	-6.2421
정적사태	-6.26051
를	-6.28935
에	-6.32105
은	-6.34339
고	-6.376
한	-6.38881
장소	-6.41258
▁를	-6.41326
VCP	-6.42726
▁XSN	-6.44863
▁에	-6.45823
▁하	-6.4633
▁은	-6.47429
EP	-6.4786
▁MM	-6.48281
,~	-6.48555
되	-6.49529
▁’	-6.51301
명사	-6.51875
ᆫ다	-6.52724
VX	-6.53633
▁고	-6.5432
▁VX	-6.57823
아	-6.57926
▁VA	-6.58382
▁NP	-6.60058
▁한	-6.60292
▁NNB	-6.63246
VA	-6.64305
▁XSA	-6.7087
들	-6.72315
있	-6.7249
어	-6.76528
▁가	-6.82973
는데	-6.84851
▁들	-6.91854
게	-6.96312
▁VCP	-6.96992
기	-7.02018
지	-7.02166
JC	-7.0221
▁NNBC	-7.03536
다	-7.04155
▁!	-7.04565
▁SN	-7.05719
양	-7.05812
태	-7.09838
시작	-7.10801
▁게	-7.11541
로	-7.12764
과	-7.17728
시간	-7.19707
것	-7.19995
ᆯ	-7.22502
에서	-7.24251
▁X	-7.28791
그	-7.29425
R	-7.30024
던	-7.31436
▁로	-7.32498
▁과	-7.32966
와	-7.36044
▁에서	-7.36464
▁기	-7.3679
▁다	-7.37364
도	-7.38298
▁ETN	-7.38524
으로	-7.39728
년	-7.3991
지명	-7.41463
인	-7.43037
▁던	-7.43795
▁'	-7.45836
산	-7.46272
었	-7.4703
수	-7.48708
▁와	-7.49834
▁그	-7.50295
▁으로	-7.51181
▁되	-7.53311
사람	-7.58978
NNB	-7.59133
▁SS	-7.59914
자	-7.62003
함께	-7.63819
한다	-7.69673
▁도	-7.71749
된다	-7.75906
위하	-7.76163
정도	-7.76245
L	-7.76615
JX	-7.79087
사랑	-7.8113
않	-7.82521
▁...	-7.82751
▁한다	-7.83384
▁SE	-7.83787
았	-7.84173
▁지	-7.84894
SO	-7.85219
에게	-7.86012
▁된다	-7.86731
▁NR	-7.87332
친구	-7.89652
NP	-7.92121
▁MAJ	-7.93243
▁어	-7.95018
위해	-7.95028
▁인	-7.97351
된	-7.97981
▁수	-7.9895
나	-7.9955
▁에게	-7.99708
만나	-8.03184
만	-8.04292
ETN	-8.0591
▁위해	-8.06361
까지	-8.06689
세상	-8.08049
(	-8.09115
)	-8.09115
날	-8.0928
사건	-8.09758
▁된	-8.10115
적	-8.11734
없	-8.12607
해	-8.16108
그녀	-8.16684
▁?	-8.17065
며	-8.21253
지만	-8.22217
▁없	-8.22248
주	-8.25018
알	-8.2577
▁EP	-8.2641
▁만	-8.26446
문장	-8.26593
사	-8.26876
모든	-8.27103
오	-8.2718
그리고	-8.28632
일	-8.30364
살	-8.3189
▁적	-8.32667
자신	-8.34346
▁며	-8.34801
▁지만	-8.37617
하지만	-8.38956
대	-8.39612
전	-8.3971
두	-8.44314
“	-8.44378
▁해	-8.44419
이야기	-8.44837
”	-8.44989
XPN	-8.46065
▁자신	-8.46552
속	-8.47981
보	-8.48884
양상	-8.50685
새로운	-8.54295
▁아	-8.5538
우리	-8.57009
▁날	-8.57863
집	-8.58045
찾	-8.58821
받	-8.59309
엄마	-8.6031
마을	-8.62331
▁일	-8.62749
면서	-8.63204
▁자	-8.63824
▁알	-8.63883
남자	-8.64359
모두	-8.66045
세계	-8.66376
어느	-8.67689
라	-8.68099
중	-8.68578
가장	-8.69263
할	-8.69297
못하	-8.70786
▁찾	-8.71358
▁받	-8.71413
내	-8.72091
▁두	-8.72584
▁살	-8.7284
말	-8.73465
치	-8.75149
인생	-8.75354
떠나	-8.75946
했	-8.76953
라는	-8.77104
▁나	-8.77241
▁어느	-8.7914
서로	-8.7917
위한	-8.79798
▁전	-8.80079
▁세계	-8.80476
▁..	-8.80628
가족	-8.81152
▁속	-8.82249
다른	-8.82308
▁할	-8.83041
죽	-8.85178
마지막	-8.86034
순간	-8.86046
아버지	-8.86124
구하	-8.86637
과연	-8.88029
야	-8.88666
발견	-8.90759
빠지	-8.9173
▁했	-8.91839
장	-8.92038
▁IC	-8.92123
부터	-8.92833
우연히	-8.93207
음	-8.9333
상태변화	-8.93952
▁중	-8.94328
▁가족	-8.94402
명	-8.95667
안	-8.95948
지키	-8.96298
리	-8.96548
시	-8.97346
죽음	-8.9915
원	-9.00113
길	-9.02369
학교	-9.03597
한편	-9.04071
▁주	-9.04207
운명	-9.04756
면	-9.05464
후	-9.05583
여자	-9.0615
듣	-9.06152
누구	-9.06153
새롭	-9.06158
그곳	-9.0623
만들	-9.06357
처럼	-9.06985
나타나	-9.07291
간	-9.07329
과거	-9.08122
단	-9.08926
비	-9.09295
▁집	-9.09447
JKB	-9.10959
다는	-9.12481
아빠	-9.13165
비밀	-9.14126
향하	-9.14392
아내	-9.14485
같	-9.14596
서	-9.15151
는다	-9.16151
아이	-9.16198
다시	-9.17214
영화	-9.17721
맞서	-9.19748
당하	-9.20314
제	-9.20449
버리	-9.20632
행복	-9.21685
생	-9.21871
여	-9.21963
점점	-9.22348
남	-9.2279
▁같	-9.23258
삶	-9.23266
번	-9.24553
▁내	-9.24598
님	-9.24888
목숨	-9.25042
계획	-9.25719
꿈꾸	-9.25727
▁라는	-9.26271
▁말	-9.26357
더	-9.26405
사라지	-9.26445
꿈	-9.26803
을까	-9.26913
세	-9.26955
상황	-9.27102
▁보	-9.27116
싶	-9.27237
▁는다	-9.27332
NNP	-9.28362
▁후	-9.28636
▁대	-9.28971
거	-9.29086
당신	-9.29216
모르	-9.29568
마음	-9.29675
▁라	-9.29711
▁다시	-9.29717
앞	-9.30509
작전	-9.30618
현실	-9.31004
▁비밀	-9.31107
눈	-9.31136
부	-9.31411
▁다는	-9.31521
딸	-9.32376
하나	-9.32692
▁명	-9.33465
건	-9.33471
▁안	-9.33477
ᄆ	-9.33567
MAG	-9.34493
목	-9.34809
동생	-9.34932
▁삶	-9.35151
일상	-9.35164
마	-9.35405
느끼	-9.35818
려는	-9.36524
모습	-9.37733
잃	-9.38022
뿐	-9.38121
가지	-9.38479
없이	-9.3849
▁을까	-9.39569
결국	-9.39687
그러나	-9.39913
편	-9.40211
나가	-9.40574
▁꿈	-9.40735
로운	-9.41297
차	-9.41465
▁아이	-9.41549
이후	-9.41923
전설	-9.42098
걸	-9.43102
▁싶	-9.43141
대한	-9.43233
ᆫ가	-9.43798
온	-9.43978
▁영화	-9.44143
소	-9.4416
숨	-9.44368
▁더	-9.44586
나서	-9.44688
▁’.	-9.44979
▁면	-9.45409
그러	-9.45821
기억	-9.46235
거대	-9.4638
위험	-9.46689
물	-9.47014
살아가	-9.47057
▁마음	-9.47291
보다	-9.47413
아들	-9.4745
신	-9.47804
롭	-9.47891
밤	-9.48832
▁"	-9.48877
때	-9.48938
▁딸	-9.49557
▁잃	-9.49639
발생	-9.4966
다고	-9.50927
찾아오	-9.50949
준비	-9.5143
▁하나	-9.51582
무엇	-9.51835
크	-9.52093
곳	-9.52847
미래	-9.53184
부정	-9.53639
대하	-9.54275
라고	-9.54999
상	-9.55018
충격	-9.55927
결심	-9.55928
스	-9.56135
인해	-9.56511
첫	-9.56515
임무	-9.56873
손	-9.57874
시대	-9.57944
▁기억	-9.5797
선	-9.58966
박	-9.59454
▁앞	-9.59685
보내	-9.59701
도움	-9.5973
▁사	-9.59772
끝	-9.59812
▁남	-9.59928
돌아오	-9.60193
사고	-9.60203
관	-9.6043
처음	-9.6068
성공	-9.60694
시키	-9.60694
▁세	-9.61041
소녀	-9.61117
▁번	-9.61395
아야	-9.61609
동료	-9.61656
위협	-9.61659
▁야	-9.62456
채	-9.62889
여행	-9.64105
갈	-9.64126
전쟁	-9.64243
사실	-9.64253
려	-9.64256
째	-9.64519
살아남	-9.64649
평범	-9.6465
▁아들	-9.65089
표현	-9.65337
▁3	-9.66108
으며	-9.665
▁2	-9.66533
불	-9.66817
위기	-9.66825
▁1	-9.66975
▁건	-9.67067
둘	-9.68047
▁죽	-9.6845
인간	-9.68709
도착	-9.68856
▁시간	-9.69121
팀	-9.69703
못한	-9.69712
바	-9.69774
▁여	-9.70107
게임	-9.70195
진	-9.70782
접속	-9.7092
여정	-9.70961
최고	-9.70962
계속	-9.70973
로부터	-9.71327
살인	-9.71631
▁오	-9.71695
열	-9.71834
남편	-9.71843
위	-9.7192
▁떠나	-9.71952
달	-9.72483
막	-9.72536
담	-9.72541
소년	-9.72652
▁위험	-9.73004
잠시	-9.73115
가득	-9.73147
▁온	-9.73178
감	-9.73799
만난다	-9.73821
월	-9.73996
요원	-9.7423
▁소녀	-9.74279
연인	-9.74685
타	-9.75145
▁사실	-9.76345
사이	-9.76398
<	-9.76459
소식	-9.76472
화	-9.7696
▁끝	-9.77444
스럽	-9.77604
기다리	-9.77665
무	-9.77728
숨기	-9.77803
▁길	-9.78602
혼자	-9.788
고향	-9.78841
어요	-9.78956
▁거	-9.79167
지구	-9.79228
▁치	-9.79321
아서	-9.79691
▁위기	-9.80842
아름다운	-9.81124
벌어지	-9.81125
나라	-9.81138
▁못한	-9.81214
▁둘	-9.81292
ᄂ	-9.81327
▁제	-9.81612
펼쳐지	-9.81724
여성	-9.81786
왕	-9.81988
소리	-9.82232
갑자기	-9.82326
▁최고	-9.82442
▁전쟁	-9.8277
가운데	-9.83541
때문	-9.83576
신비	-9.83651
부모	-9.84176
▁채	-9.84212
아니	-9.84371
온다	-9.84376
작가	-9.84562
돌아가	-9.85394
VCN	-9.85565
지금	-9.85618
통하	-9.8568
니	-9.85786
스러운	-9.86015
찾아가	-9.86025
▁남편	-9.86032
처하	-9.86104
어디	-9.8621
정체	-9.86225
이상	-9.86242
▁인간	-9.86243
▁그러	-9.86318
믿	-9.86807
시절	-9.87292
경찰	-9.87444
▁사이	-9.87883
마주	-9.88145
▁첫	-9.88791
그날	-9.89363
▁단	-9.89368
모험	-9.89458
존재	-9.89604
얻	-9.89853
의심	-9.89864
들어가	-9.89887
음악	-9.90167
등	-9.9061
▁10	-9.90669
초	-9.90703
▁사고	-9.90943
조직	-9.90983
▁곳	-9.91027
겪	-9.91164
작	-9.91166
▁지구	-9.91387
힘	-9.91461
정	-9.91479
▁대한	-9.91694
네	-9.92142
돈	-9.92348
진실	-9.92398
범인	-9.92622
형	-9.92689
그리	-9.92757
▁여행	-9.93465
▁신	-9.93556
되찾	-9.93586
러	-9.93809
▁밤	-9.93979
미	-9.94277
군	-9.94296
마법	-9.94522
▁소년	-9.94937
너	-9.95054
콘서트	-9.95205
낯선	-9.95205
데	-9.95978
보이	-9.96239
뒤	-9.96394
끔찍	-9.96589
발	-9.97098
▁지금	-9.9712
만난	-9.97438
개	-9.97459
통해	-9.97476
▁월	-9.97645
새	-9.97734
될	-9.98157
겠	-9.98211
▁이상	-9.98271
도시	-9.98352
실	-9.98881
인가	-9.99358
천재	-9.99432
마저	-9.99454
▁차	-9.99705
▁비	-9.99736
▁간	-10.0001
▁VCN	-10.0066
하루	-10.0069
심	-10.0116
방	-10.0141
▁5	-10.0147
탈출	-10.019
생활	-10.0192
범죄	-10.02
▁시	-10.0205
기적	-10.0228
할머니	-10.0232
누군가	-10.0232
일어나	-10.0233
유일	-10.0283
무대	-10.0296
마다	-10.0311
▁힘	-10.0316
▁마주	-10.033
결혼	-10.0359
어머니	-10.0376
얼굴	-10.0381
예상	-10.0383
약속	-10.0385
▁막	-10.0406
쓰	-10.0408
공	-10.0419
▁진실	-10.0468
▁모험	-10.0471
▁라고	-10.0481
앞두	-10.0482
전하	-10.0502
▁달	-10.0518
▁마	-10.0521
문	-10.0527
뉴욕	-10.0532
무사히	-10.0532
마침내	-10.0533
진짜	-10.0593
능력	-10.0594
벗어나	-10.0609
태어나	-10.0609
잡	-10.064
어리	-10.0648
현재	-10.0681
미션	-10.0686
대한민국	-10.0689
등장	-10.0698
▁존재	-10.0709
▁바	-10.0712
동	-10.0716
호	-10.0725
▁살인	-10.073
동안	-10.0738
이제	-10.0761
▁만난	-10.0816
아름답	-10.0841
특별	-10.0845
▁서	-10.0856
▁될	-10.0887
▁통해	-10.0889
기회	-10.089
ᄇ니	-10.092
▁조직	-10.0928
ᆯ까	-10.0984
▁인가	-10.0995
숨겨진	-10.1
악당	-10.1
미스터리	-10.1
최초	-10.1001
▁손	-10.1002
각자	-10.1006
▁타	-10.1073
▁왕	-10.1092
우주	-10.1094
▁생	-10.1116
▁음악	-10.1131
▁믿	-10.1132
▁도시	-10.1148
방법	-10.1161
아침	-10.1161
배우	-10.1165
▁보내	-10.1183
▁경찰	-10.1188
▁겠	-10.1298
왕국	-10.1327
였	-10.1334
큰	-10.1353
IC	-10.1365
드	-10.1386
▁눈	-10.1387
반	-10.1401
몸	-10.1436
▁무대	-10.1445
상처	-10.149
공주	-10.1492
조	-10.1494
▁형	-10.1503
▁4	-10.1528
기록	-10.1583
선택	-10.1615
평화	-10.1622
공연	-10.1622
밴드	-10.1658
조금	-10.166
저주	-10.167
▁진짜	-10.1683
바다	-10.1713
또	-10.1721
JKC	-10.1735
공간	-10.1739
싸움	-10.1742
▁유일	-10.1774
▁위	-10.1777
자리	-10.1789
희망	-10.1802
▁때	-10.1815
국	-10.1825
노리	-10.1832
본	-10.1834
려고	-10.1841
▁돈	-10.1841
▁려	-10.1844
0	-10.1868
위대	-10.1878
▁등	-10.1909
▁탈출	-10.1949
줄	-10.1971
벌이	-10.1993
▁네	-10.1993
▁뒤	-10.1999
부부	-10.2012
수사	-10.2023
주인	-10.2025
좋	-10.208
생각	-10.208
▁특별	-10.2085
▁팀	-10.2085
지내	-10.2089
싸우	-10.2093
재	-10.2115
▁원	-10.2123
▁상	-10.2126
모	-10.216
반드시	-10.2182
밝히	-10.2182
란	-10.2192
포기	-10.2196
▁이제	-10.2242
잇	-10.2271
가진	-10.2284
고자	-10.2317
▁202	-10.2335
운영	-10.2363
필요	-10.2363
대결	-10.2365
탄생	-10.2365
납치	-10.2366
공격	-10.2366
유	-10.2401
어야	-10.2407
향한다	-10.2427
남기	-10.2438
빠진다	-10.2441
씩	-10.2459
노래	-10.2462
이름	-10.2464
복수	-10.2464
박사	-10.2474
저	-10.2498
관계	-10.2557
의해	-10.2568
▁작	-10.2584
대원	-10.2591
의문	-10.26
함	-10.2621
만남	-10.2623
과정	-10.2642
▁생활	-10.2664
준	-10.2678
이별	-10.2697
▁였	-10.2698
추억	-10.2735
영혼	-10.2735
품	-10.2739
가능	-10.2755
빠진	-10.2755
대신	-10.2759
▁또	-10.2799
세우	-10.2827
판	-10.2839
섬	-10.2855
▁-	-10.2857
▁평화	-10.2872
지나	-10.2887
▁선택	-10.2889
천	-10.29
프로젝트	-10.2927
실화	-10.2929
그런데	-10.293
구	-10.2949
신부	-10.3036
달리	-10.3056
완벽	-10.3066
아기	-10.3069
▁마법	-10.3095
죽이	-10.3108
병	-10.311
주인공	-10.3119
펼치	-10.3122
흔적	-10.3122
바꾸	-10.3122
목소리	-10.3123
올	-10.3144
▁희망	-10.3151
▁불	-10.3166
역사	-10.317
형사	-10.318
학생	-10.3212
▁좋	-10.3234
▁생각	-10.3235
해야	-10.3252
력	-10.3295
계	-10.3312
공개	-10.3319
떨어지	-10.3321
열리	-10.333
아직	-10.3332
▁무	-10.3338
으로부터	-10.3347
▁공연	-10.335
▁잡	-10.3378
▁가진	-10.3415
▁하루	-10.3453
▁걸	-10.3458
제안	-10.3492
바로	-10.3503
멤버	-10.3524
습격	-10.3524
우정	-10.3525
괴물	-10.3526
점차	-10.3526
세력	-10.3531
피	-10.3545
▁6	-10.3566
식	-10.3597
▁씩	-10.3614
▁큰	-10.3646
▁정체	-10.3694
요	-10.3695
버린	-10.3699
여름	-10.3705
펼쳐진다	-10.3708
▁이름	-10.3722
깨닫	-10.3731
노력	-10.3732
최악	-10.3732
감동	-10.3732
조차	-10.3737
최후	-10.3737
구할	-10.3739
그렇게	-10.374
N	-10.3752
맞	-10.3772
밖	-10.3806
▁너	-10.3811
생기	-10.3812
수록	-10.3816
숲	-10.3818
▁빠진	-10.383
▁납치	-10.383
한국	-10.3836
금	-10.3882
같이	-10.3895
터	-10.3924
공포	-10.3931
▁개	-10.3938
▁범죄	-10.3938
회	-10.3941
▁의문	-10.3941
드디어	-10.3943
출신	-10.3943
평생	-10.3943
키우	-10.3944
▁화	-10.3958
▁바다	-10.3996
사라진	-10.3999
모이	-10.4017
▁노래	-10.4034
대학	-10.4041
미국	-10.4042
오랜	-10.4042
인류	-10.4047
▁줄	-10.4052
든	-10.4055
▁진	-10.4058
▁우주	-10.4068
K	-10.4094
드러나	-10.4159
낯설	-10.4159
1	-10.4159
현장	-10.4159
홀로	-10.4161
정체불명	-10.4162
분노	-10.4169
▁열	-10.4187
코	-10.4197
많	-10.4217
강	-10.4222
다음	-10.4228
▁공격	-10.4266
도망치	-10.4274
매일	-10.4277
대회	-10.428
극	-10.4285
배	-10.429
▁완벽	-10.4327
▁장	-10.4332
▁호	-10.4348
대로	-10.4364
거리	-10.4378
떠난	-10.438
어드벤처	-10.438
앞둔	-10.4381
청년	-10.4384
열정	-10.4385
피하	-10.4386
생존	-10.439
오늘	-10.4393
히어로	-10.4393
나선다	-10.442
▁관계	-10.4428
▁역사	-10.4435
히	-10.4442
잘	-10.4511
혼란	-10.4512
▁보이	-10.4517
입	-10.4575
▁복수	-10.4592
체	-10.4599
곁	-10.4606
로맨스	-10.4606
청춘	-10.4606
실황	-10.4606
저택	-10.4606
오직	-10.4609
전직	-10.4612
일행	-10.4615
엔	-10.4631
▁바로	-10.4652
▁해야	-10.467
여기	-10.4682
▁능력	-10.4686
다르	-10.4711
트	-10.4715
쓸	-10.472
멈추	-10.4721
듯	-10.4735
실종	-10.475
액션	-10.4755
▁결혼	-10.4755
감정	-10.4756
떠난다	-10.4769
▁버린	-10.4778
먹	-10.482
땅	-10.4836
어떻게	-10.4837
환상	-10.4838
우	-10.4843
어린	-10.4849
런던	-10.4851
▁펼쳐진다	-10.4863
예기	-10.4867
▁제안	-10.4868
향한	-10.4875
군인	-10.4878
버	-10.4926
▁수사	-10.498
전투	-10.4986
차지	-10.4993
상상	-10.5004
연	-10.5019
부대	-10.5028
맡	-10.507
대통령	-10.5074
오페라	-10.5074
갇히	-10.5074
고등학교	-10.5075
걸리	-10.5081
최	-10.5092
▁20	-10.5112
팔	-10.5125
테러	-10.5129
▁많	-10.5132
알리	-10.5135
▁사라진	-10.5155
▁본	-10.5171
돕	-10.5194
▁숲	-10.5201
고양이	-10.5203
고통	-10.5218
깊	-10.5236
연애	-10.5258
▁섬	-10.5268
쫓기	-10.5269
피해	-10.5285
바이러스	-10.5316
토끼	-10.5316
매력	-10.5317
범	-10.5319
다룬	-10.5323
병원	-10.5323
화려	-10.5324
선물	-10.5325
통	-10.5327
임	-10.5335
▁문	-10.534
▁니	-10.5343
씨	-10.5345
키	-10.5359
당한다	-10.5369
역	-10.5385
아무	-10.5407
나오	-10.5419
▁홀로	-10.5439
놈	-10.544
훈련	-10.544
▁함	-10.5444
▁인류	-10.5444
귀신	-10.5445
시달리	-10.5446
변하	-10.5449
ᆫ다는	-10.5464
▁몸	-10.5476
그때	-10.548
귀	-10.5492
이번	-10.5528
▁떠난	-10.5536
▁히어로	-10.5548
▁현장	-10.5558
민국	-10.556
:	-10.5565
예측	-10.5565
못	-10.5565
용의자	-10.5567
역시	-10.5572
파	-10.5627
빛	-10.5636
2	-10.5651
갑작스럽	-10.5692
▁공포	-10.5697
끝내	-10.5718
▁음	-10.5719
그것	-10.5738
▁오늘	-10.5772
▁잘	-10.5785
그런	-10.5789
디	-10.5792
▁혼란	-10.5797
스크린	-10.5819
직접	-10.5819
고군분투	-10.582
부탁	-10.582
돌보	-10.583
▁데	-10.5859
만드	-10.5861
용기	-10.5871
불명	-10.5872
난	-10.5876
▁듯	-10.5881
▁미국	-10.5898
고백	-10.59
쫓	-10.5903
풀	-10.592
▁떠난다	-10.5926
▁새	-10.5926
MM	-10.5927
▁매일	-10.5942
▁향한	-10.5949
따르	-10.5949
즐기	-10.595
카	-10.5975
간다	-10.5999
가문	-10.6023
▁액션	-10.6042
▁감정	-10.6042
▁배우	-10.6046
▁한국	-10.6066
다큐멘터리	-10.6081
잃어버린	-10.6081
꼬마	-10.6081
으면	-10.6093
못했	-10.6096
9	-10.6139
▁스	-10.6155
▁여름	-10.6204
힘들	-10.6223
그린	-10.6227
▁부	-10.6238
▁8	-10.6256
▁선	-10.6256
▁깊	-10.6263
▁담	-10.6291
▁형사	-10.6297
▁엔	-10.6302
경	-10.631
▁맞	-10.6311
무리	-10.6329
별	-10.6332
스타	-10.6343
몬스터	-10.6349
스스로	-10.6349
습니다	-10.6349
따뜻	-10.6349
둘러싼	-10.6349
독일군	-10.6352
▁준	-10.6411
학	-10.6434
왕자	-10.6437
돌	-10.6437
외	-10.6442
▁소리	-10.648
▁동안	-10.648
목격	-10.6489
형제	-10.65
정보	-10.6512
행성	-10.6522
▁어린	-10.6532
▁아니	-10.659
▁UN	-10.6625
엄청난	-10.6625
패밀리	-10.6625
최강	-10.6627
재회	-10.6628
갈등	-10.6628
지닌	-10.6629
나누	-10.663
뜻	-10.6631
책	-10.6637
선생	-10.6638
폭발	-10.6638
수많	-10.6672
다가	-10.6678
▁연애	-10.669
북한	-10.669
도전	-10.6693
깨어나	-10.6766
감추	-10.6767
총	-10.6767
▁실종	-10.6786
잊	-10.6787
마약	-10.6788
동물	-10.6788
술	-10.6797
▁반	-10.6801
가수	-10.683
▁7	-10.686
악	-10.6864
▁못	-10.6864
애	-10.6874
뮤지컬	-10.6909
호텔	-10.6909
드래곤	-10.6909
걸린	-10.6912
승리	-10.6912
비극	-10.6916
주민	-10.6916
멀	-10.6928
팀원	-10.6931
걷	-10.6932
빠져	-10.6932
로봇	-10.6936
파리	-10.6941
생명	-10.6941
회사	-10.6942
▁그런	-10.6942
▁아무	-10.6946
▁자리	-10.6968
▁테러	-10.6974
▁쫓	-10.6988
▁상상	-10.6993
맞이	-10.6994
▁먹	-10.7026
▁러	-10.704
뜨겁	-10.7054
로서	-10.7075
부르	-10.709
고등	-10.7094
진다	-10.7128
▁201	-10.7138
이사	-10.7168
뭐	-10.7201
NOW	-10.7201
입니다	-10.7201
세요	-10.7205
빛나	-10.7224
단서	-10.7229
르	-10.7245
슈퍼	-10.7249
불리	-10.7249
음모	-10.7251
사회	-10.7252
▁초	-10.7269
다가오	-10.7373
▁그린	-10.7381
오르	-10.7387
짓	-10.739
서울	-10.7404
오래	-10.7406
부인	-10.7429
자살	-10.7437
용	-10.7454
친	-10.7462
순	-10.7464
몰	-10.748
넛	-10.7498
직원	-10.75
두려움	-10.7502
연쇄	-10.7502
악몽	-10.7502
삼	-10.7503
축제	-10.7503
물론	-10.7504
마녀	-10.7504
거짓말	-10.7505
남매	-10.7507
청	-10.751
존	-10.7547
따라	-10.7552
도와	-10.7558
의사	-10.756
연구	-10.7565
상어	-10.7588
버린다	-10.7621
원인	-10.7628
▁물	-10.7652
클럽	-10.7656
▁올	-10.7656
시도	-10.7658
상태	-10.766
▁전투	-10.7662
극장	-10.7705
넘	-10.7725
▁미	-10.773
조선	-10.7731
자유	-10.7741
▁아야	-10.7741
▁방	-10.7751
▁간다	-10.7752
내리	-10.7755
종	-10.7759
편지	-10.7765
▁조	-10.7774
제임스	-10.7812
움직이	-10.7812
합류	-10.7812
파헤치	-10.7812
만큼	-10.7812
실패	-10.7813
라이브	-10.7814
거절	-10.7815
미군	-10.7817
치열	-10.7832
기묘	-10.7843
실수	-10.7844
▁맡	-10.7859
이유	-10.7887
▁다가	-10.7891
▁피	-10.7903
초대	-10.7904
수상	-10.7915
여인	-10.7928
국가	-10.7937
▁든	-10.7939
▁잊	-10.7945
고교	-10.7957
질	-10.7974
▁달리	-10.7977
O	-10.7981
족	-10.8004
교	-10.806
마리	-10.8062
돌아온	-10.8064
절대	-10.8065
영국	-10.8066
할아버지	-10.8067
일본	-10.8069
▁빠져	-10.8123
▁특수	-10.8129
교사	-10.813
여전히	-10.8132
오랫동안	-10.8132
구출	-10.8132
재능	-10.8132
규모	-10.8133
부족	-10.8133
실체	-10.8134
점	-10.8135
헤어지	-10.8137
하루하루	-10.814
생존자	-10.8175
민	-10.819
비행	-10.8223
바람	-10.8237
공룡	-10.8241
행동	-10.8241
불안	-10.8244
하늘	-10.827
극한	-10.8273
위해서	-10.8306
흔들리	-10.8308
▁맞이	-10.831
에게서	-10.8316
영	-10.8348
이곳	-10.8365
티	-10.839
뜨	-10.839
▁슈퍼	-10.8401
탐험	-10.8402
▁음모	-10.8406
최대	-10.8407
꾼	-10.8415
▁회사	-10.8415
▁30	-10.8416
▁동물	-10.8425
▁마약	-10.843
합니다	-10.8462
걱정	-10.8462
뜨거운	-10.8462
선언	-10.8462
놀라운	-10.8463
커플	-10.8463
홍콩	-10.8463
접근	-10.8463
아파트	-10.8464
요정	-10.8465
공장	-10.8465
참여	-10.8466
통제	-10.8488
이어지	-10.85
난다	-10.8506
아요	-10.8508
웃	-10.8517
치료	-10.8592
해결	-10.8592
영웅	-10.8593
프랑스	-10.8594
팬	-10.8595
작품	-10.8595
!	-10.8607
인물	-10.8612
대전	-10.8621
모으	-10.8632
기자	-10.8632
조사	-10.8633
▁파리	-10.8638
데리	-10.8648
다루	-10.865
사장	-10.8657
문제	-10.8661
자기	-10.8677
▁입	-10.8698
창	-10.8718
▁오래	-10.8734
▁서울	-10.8739
또한	-10.8767
맨	-10.8768
주변	-10.8773
파티	-10.8777
▁폭발	-10.878
▁오랜	-10.8783
이루	-10.88
닮	-10.8804
잠입	-10.8806
명령	-10.8808
힘든	-10.8812
아픈	-10.8816
즈	-10.8834
론	-10.8847
마법사	-10.8853
급	-10.8874
예술	-10.8945
장애	-10.8959
ᆫ지	-10.8963
사투	-10.8963
▁존	-10.8964
향해	-10.8969
▁이유	-10.8986
▁여기	-10.8995
라도	-10.9037
▁팔	-10.9048
다며	-10.9065
4	-10.9073
들리	-10.9082
자연	-10.9105
북	-10.9123
▁스타	-10.9129
김	-10.9142
▁숨	-10.9144
둘러싸	-10.9151
전화	-10.9152
바꿀	-10.9155
바뀌	-10.9156
돌아갈	-10.9158
라이프	-10.9158
교도소	-10.9159
스토리	-10.9159
언니	-10.9159
갑작스러운	-10.9159
무슨	-10.916
생명체	-10.916
무언가	-10.9161
A	-10.9163
고민	-10.9169
자꾸	-10.917
▁으면	-10.9171
대해	-10.9184
대학생	-10.9188
대화	-10.9193
가짜	-10.9217
▁이사	-10.9222
도중	-10.9225
▁국가	-10.9238
전부	-10.9239
▁편지	-10.9253
법	-10.9254
▁따라	-10.9255
▁여인	-10.9258
▁부대	-10.9272
▁사회	-10.9276
찾아온	-10.9292
라며	-10.9297
다면	-10.932
국민	-10.9329
▁절대	-10.9333
흐르	-10.934
으러	-10.934
휘말리	-10.934
보호	-10.9341
▁100	-10.9341
좀	-10.9341
정신	-10.9344
차별	-10.9345
무기	-10.937
▁수상	-10.9383
증	-10.9408
▁소	-10.9431
▁도전	-10.9463
울리	-10.9488
▁돌아온	-10.9512
왔	-10.9519
갖	-10.9521
설상가상	-10.9525
카페	-10.9525
ᄅ	-10.9525
ᅡ	-10.9525
무너지	-10.9525
하룻밤	-10.9525
교통사고	-10.9526
체포	-10.9526
너머	-10.9527
반복	-10.9527
변호사	-10.9527
위험천만	-10.953
추격	-10.9532
버스	-10.9533
진심	-10.9534
결성	-10.9546
▁배	-10.9546
정부	-10.9552
비행기	-10.9556
나요	-10.9557
고립	-10.9558
▁조선	-10.9559
▁천	-10.9576
▁재	-10.9592
레	-10.9598
▁초대	-10.9598
▁최대	-10.9619
싸	-10.9633
▁극장	-10.9634
▁발	-10.9683
▁쓰	-10.9704
활약	-10.9714
설레	-10.9714
5	-10.9724
빌리	-10.973
V	-10.9732
이끌	-10.974
▁코	-10.9754
▁대전	-10.9767
살리	-10.977
▁공룡	-10.977
이웃	-10.9773
▁행동	-10.9775
살해	-10.9779
만든	-10.9793
아도	-10.9796
▁자유	-10.9814
결	-10.9822
▁12	-10.9826
▁불리	-10.9843
밀	-10.9852
▁정	-10.986
▁이곳	-10.9864
약	-10.9885
놓	-10.9887
뛰어난	-10.9906
슬픔	-10.9906
몰랐	-10.9906
욕망	-10.9906
▁15	-10.9907
직감	-10.9907
비롯	-10.9907
연결	-10.9907
황제	-10.9908
호기심	-10.9908
요구	-10.9909
▁일본	-10.9922
성격	-10.9922
▁넘	-10.9924
▁파티	-10.9928
마주치	-10.993
못할	-10.993
무비	-10.993
거부	-10.9939
목표	-10.9942
소원	-10.9944
▁밖	-10.9956
처한다	-10.9957
▁JK	-10.9969
주목	-10.9977
▁하늘	-10.9986
유지	-10.9997
▁책	-11.0036
수진	-11.0039
깨	-11.0044
▁목격	-11.0047
▁대학	-11.005
려던	-11.0071
▁영국	-11.0121
▁향해	-11.0123
▁사투	-11.0123
꽃	-11.0132
아닌	-11.0134
▁작품	-11.0138
▁영웅	-11.0146
진정	-11.0148
옥토	-11.0151
해서	-11.0151
▁꾼	-11.0157
▁강	-11.0173
린	-11.0173
이것	-11.0178
▁난	-11.0184
▁귀	-11.0189
▁삼	-11.0195
▁리	-11.0195
당	-11.0202
늘	-11.0216
어도	-11.0228
미지	-11.0228
냥	-11.0236
▁품	-11.0243
매	-11.0256
▁주변	-11.0273
노	-11.0279
수수께끼	-11.0302
인터뷰	-11.0302
즐겁	-11.0302
ᅥ	-11.0302
살아간다	-11.0302
킬러	-11.0302
뛰어들	-11.0302
괴롭히	-11.0303
절친	-11.0303
정예	-11.0304
초능력	-11.0309
교수	-11.0309
언제나	-11.0311
초월	-11.0312
사악	-11.0315
아프	-11.0322
▁풀	-11.0324
병사	-11.0327
▁팬	-11.0328
중요	-11.0329
봉인	-11.033
쪽	-11.0339
▁프랑스	-11.0341
오랜만	-11.0343
빌	-11.0345
지니	-11.0354
경험	-11.036
왜	-11.0362
블랙	-11.0363
됐	-11.0363
학원	-11.0364
월드	-11.0364
중국	-11.0365
추적	-11.0365
인연	-11.0366
사진	-11.0371
누가	-11.0377
▁씨	-11.039
▁피해	-11.0401
예술가	-11.0411
뒤흔들	-11.0411
▁생존	-11.0435
모를	-11.0441
▁찾아온	-11.0453
철	-11.0475
연이	-11.048
▁좀	-11.0481
가난	-11.049
이미	-11.0498
▁9	-11.0503
▁최	-11.0506
넣	-11.0506
위로	-11.0507
지옥	-11.0522
▁고민	-11.053
▁갖	-11.0533
검	-11.0555
▁임	-11.0558
프	-11.0569
전문	-11.057
곧	-11.0579
연락	-11.058
영상	-11.058
대표	-11.0582
~	-11.0587
사상	-11.0589
8	-11.061
▁거리	-11.0699
인지	-11.0699
▁정신	-11.07
E	-11.0701
일까	-11.0702
▁군	-11.0712
아티스트	-11.0715
오디션	-11.0715
얽힌	-11.0715
잔혹	-11.0715
맥스	-11.0715
절망	-11.0715
e	-11.0715
본능	-11.0716
투입	-11.0716
짝사랑	-11.0719
장악	-11.0721
진구	-11.0722
선거	-11.0732
도록	-11.0741
불길	-11.0744
무장	-11.0746
건물	-11.0748
이끄	-11.075
투어	-11.0764
▁키	-11.0767
피해자	-11.077
곡	-11.0775
견	-11.078
거짓	-11.0783
하딘	-11.079
톰	-11.0799
유명	-11.0802
마치	-11.0803
동네	-11.0803
▁주인	-11.0803
집단	-11.0804
기이	-11.0808
다니	-11.0811
보물	-11.0812
호기	-11.0818
▁유	-11.0827
거나	-11.0846
반전	-11.0878
놓이	-11.0882
내일	-11.0883
짝	-11.0909
▁정보	-11.0916
s	-11.0926
밖에	-11.0929
분투	-11.094
넘치	-11.0945
▁만든	-11.0951
.	-11.0958
▁조사	-11.0964
▁죽이	-11.0998
어서	-11.1024
울	-11.1024
▁아닌	-11.1024
강력	-11.103
완성	-11.103
▁극	-11.106
ᄂ다	-11.1071
▁전화	-11.1071
제작	-11.1081
▁악	-11.1083
루	-11.1088
▁19	-11.1105
류	-11.1109
▁문제	-11.113
일으키	-11.1145
아르바이트	-11.1145
저녁	-11.1145
프랭크	-11.1145
할리우드	-11.1145
고등학생	-11.1145
요청	-11.1147
먼저	-11.1147
일곱	-11.1148
방식	-11.115
저마다	-11.115
만났	-11.115
채우	-11.1151
선배	-11.1151
지킬	-11.1153
악마	-11.1154
▁저	-11.1158
내용	-11.116
사연	-11.1161
든다	-11.117
시선	-11.117
살인마	-11.1171
▁불안	-11.1216
사망	-11.1217
장난	-11.1221
▁학생	-11.1254
변화	-11.1262
진행	-11.1262
그저	-11.1282
도심	-11.1286
▁옥토	-11.1313
▁장애	-11.1322
변호	-11.1358
출동	-11.1366
#	-11.1367
떠올리	-11.1367
떠오르	-11.1367
식당	-11.1368
▁살해	-11.1368
막히	-11.1372
▁대해	-11.1378
바라	-11.1394
탄	-11.1459
찾아내	-11.147
레이	-11.1472
▁소원	-11.1492
암살	-11.1496
정치	-11.1507
소중	-11.1509
▁자연	-11.1512
▁왜	-11.1514
지배	-11.1515
▁됐	-11.1525
▁마리	-11.1552
▁왔	-11.158
▁계	-11.1588
센터	-11.1593
서서히	-11.1594
즐거운	-11.1594
어두운	-11.1594
환영	-11.1595
무자비	-11.1595
취재	-11.1596
전혀	-11.1598
잡히	-11.1599
누명	-11.16
당시	-11.1602
온갖	-11.1602
▁란	-11.1603
임신	-11.1604
제대로	-11.1607
▁티	-11.1608
배후	-11.161
역대	-11.1619
들어간다	-11.1619
피할	-11.1621
눈앞	-11.1624
전체	-11.1627
권	-11.1628
차원	-11.1638
선사	-11.1648
탄지	-11.165
기업	-11.166
▁바람	-11.1672
돌아온다	-11.1707
전문가	-11.1711
신나	-11.1719
나타난	-11.1723
▁곧	-11.1725
▁총	-11.173
옛	-11.1736
으려는	-11.1737
3	-11.1742
더욱	-11.1744
동시	-11.1746
나선	-11.1754
▁블랙	-11.1754
▁추적	-11.1758
▁목표	-11.1776
▁해서	-11.1785
가정	-11.1805
▁버스	-11.1811
▁정부	-11.1812
레드	-11.1826
[	-11.1827
]	-11.1827
낳	-11.1827
들어오	-11.1828
▁무기	-11.1842
▁순	-11.1851
▁일까	-11.1853
▁빛	-11.1855
지목	-11.1871
잠들	-11.1886
기사	-11.1906
벌	-11.1936
▁경험	-11.1941
빈	-11.1951
긴	-11.1967
업	-11.1972
천만	-11.1975
▁연락	-11.1978
운동	-11.1979
▁대표	-11.198
수행	-11.1999
상대	-11.2004
백	-11.2011
이르	-11.2055
▁역	-11.2057
낮	-11.206
▁199	-11.206
유럽	-11.2064
멕시코	-11.2065
가까스로	-11.2065
판타지	-11.2065
줏	-11.2065
갑작스런	-11.2065
동행	-11.2066
장난감	-11.2066
밝혀진다	-11.2067
대립	-11.2068
도쿄	-11.2069
거울	-11.2072
환자	-11.2075
함정	-11.2075
바라보	-11.2075
학년	-11.2076
7	-11.2078
미치	-11.2079
자랑	-11.2079
가상	-11.2081
여왕	-11.2092
해당	-11.2093
▁해결	-11.2093
곳곳	-11.2094
첫눈	-11.2101
수단	-11.2109
세기	-11.2112
대위	-11.2113
정의	-11.2114
▁용	-11.2123
가리	-11.2159
주년	-11.2178
범죄자	-11.2184
패	-11.2207
6	-11.2212
▁인지	-11.2224
억	-11.2228
활동	-11.2234
▁놓	-11.2236
고대	-11.2236
지우	-11.2236
▁월드	-11.2237
직장	-11.2247
졸업	-11.2249
관심	-11.225
사냥	-11.225
독일	-11.2251
어른	-11.2254
▁D	-11.2268
▁B	-11.2286
깨우	-11.2294
해진	-11.2303
버티	-11.2307
놀랍	-11.2309
찾아온다	-11.2318
개월	-11.2323
▁치료	-11.2326
▁판	-11.2329
한때	-11.234
자식	-11.2359
▁다면	-11.2363
상한	-11.2377
행	-11.2408
▁돌	-11.2411
명예	-11.2414
마디	-11.2419
시기	-11.2422
▁강력	-11.2433
석	-11.2445
▁병	-11.2447
▁톰	-11.2454
토	-11.2455
▁사진	-11.2459
▁영상	-11.247
다양	-11.2481
▁별	-11.2497
봄	-11.2501
연주	-11.2501
파괴	-11.2509
구조	-11.251
이탈리아	-11.2512
정상	-11.2513
생일	-11.2528
지역	-11.253
갔	-11.254
불시착	-11.2559
짜릿	-11.2559
드러내	-11.2559
부딪히	-11.2559
돌아왔	-11.2559
빠르	-11.2559
갇혀	-11.2559
뒤흔든	-11.2559
숨겨져	-11.2559
충돌	-11.2559
살아온	-11.2559
오빠	-11.256
짱구	-11.256
지켜낼	-11.256
제이크	-11.256
억울	-11.256
평온	-11.2561
직전	-11.2561
재즈	-11.2562
열쇠	-11.2562
마이크	-11.2562
재난	-11.2563
간직	-11.2564
잘못	-11.2564
성당	-11.2573
에겐	-11.2574
스님	-11.2577
희	-11.2583
시킨다	-11.2586
잔	-11.259
▁지나	-11.2591
지쳐	-11.2595
어라	-11.2595
기운	-11.2597
소속	-11.2598
제거	-11.2603
용의	-11.261
대가	-11.2619
잃어버	-11.2619
▁그리	-11.2634
▁애	-11.2647
관한	-11.2648
▁소중	-11.2663
▁변화	-11.2679
▁진행	-11.2679
아라	-11.2692
▁보물	-11.2711
▁깨	-11.2719
백성	-11.272
▁이미	-11.2732
암	-11.2749
머리	-11.2771
볼	-11.2778
실력	-11.278
잭	-11.2781
빚	-11.2781
젊	-11.2782
구해	-11.2789
사태	-11.2796
당한	-11.28
견디	-11.2817
주어지	-11.2818
▁맨	-11.2827
▁파	-11.2827
▁나선	-11.2831
격	-11.2842
고군	-11.2881
▁동시	-11.2884
▁나타난	-11.2887
I	-11.2888
끝나	-11.2893
철수	-11.2898
까	-11.2936
▁사상	-11.2938
▁완성	-11.2958
▁유명	-11.2961
▁동네	-11.2967
표	-11.3009
랜드	-11.3013
해도	-11.3023
십	-11.3041
소설	-11.3047
지휘	-11.3048
쥐	-11.3054
▁구	-11.3054
타임	-11.3054
방문	-11.3056
폭력	-11.3057
현상	-11.3058
폭탄	-11.3058
지켜	-11.3061
강렬	-11.3079
뮤지션	-11.3079
및	-11.3079
좌충우돌	-11.3079
급기야	-11.3079
떠났	-11.3079
유쾌	-11.3079
달콤	-11.3079
변신	-11.3079
찰리	-11.3079
회복	-11.308
바닷속	-11.308
평소	-11.308
배경	-11.3082
사업	-11.3085
선수	-11.3091
생계	-11.3091
남친	-11.3091
지켜보	-11.3094
오른다	-11.3099
도대체	-11.3101
마크	-11.3108
이용	-11.3118
느낀다	-11.3124
예	-11.3136
▁빌	-11.3143
▁중국	-11.3194
지치	-11.3216
찬	-11.3228
포	-11.323
안전	-11.3253
이해	-11.3254
기계	-11.3257
나치	-11.3268
쉬	-11.331
높	-11.3327
▁카	-11.3338
쇠	-11.334
결정	-11.334
신분	-11.3342
죠	-11.3343
얼마	-11.3345
감옥	-11.3346
영원	-11.3348
동원	-11.3348
감시	-11.3348
앓	-11.3349
보스	-11.3358
집안	-11.3363
건네	-11.3368
▁진정	-11.3394
▁독일	-11.3411
▁지배	-11.3421
▁사망	-11.3433
▁수행	-11.3435
▁더욱	-11.3447
테	-11.3449
인기	-11.3454
세대	-11.3469
글	-11.3472
▁드	-11.3476
▁찾아온다	-11.3484
절	-11.3493
▁검	-11.3506
불의	-11.3507
직	-11.3526
al	-11.353
메	-11.3555
랑	-11.3569
송	-11.3591
소문	-11.3592
얼	-11.362
▁버	-11.3622
리브	-11.3625
밥	-11.3626
엄청	-11.3626
옆	-11.3626
갚	-11.3627
비디오	-11.3627
빠른	-11.3627
섬뜩	-11.3627
언젠가	-11.3627
트라우마	-11.3627
Q	-11.3627
마피아	-11.3627
블록버스터	-11.3627
커져	-11.3627
관련	-11.3627
레이싱	-11.3627
동굴	-11.3627
순식간	-11.3627
방향	-11.3627
취업	-11.3627
외모	-11.3627
국경	-11.3627
러브	-11.3628
감행	-11.3628
무협	-11.3628
외계	-11.3628
공조	-11.3628
극복	-11.3628
동화	-11.3629
마틴	-11.3629
꾸미	-11.3629
항상	-11.3629
영원히	-11.3629
반격	-11.3629
핑크	-11.363
퍼지	-11.363
시각	-11.3631
알렉스	-11.3631
몰래	-11.3632
반대	-11.3636
생애	-11.3636
교도	-11.3636
샘	-11.3638
시골	-11.3639
권력	-11.3639
묘한	-11.3641
국제	-11.3642
공부	-11.3642
물건	-11.3648
역할	-11.3649
이혼	-11.3659
전역	-11.3659
이태석	-11.3662
▁어야	-11.367
노인	-11.3672
보낸다	-11.3674
다투	-11.3676
방해	-11.3686
▁어른	-11.3697
순수	-11.3699
만날	-11.3726
분위기	-11.3735
▁연구	-11.3747
▁정의	-11.3755
▁영	-11.3758
▁탐험	-11.3765
주장	-11.3783
▁활동	-11.3789
▁늘	-11.3829
오해	-11.3829
▁보호	-11.3831
이거	-11.3869
▁당한	-11.3874
교통	-11.3912
겟	-11.3912
얽히	-11.3912
강아지	-11.3913
받아들이	-11.3913
알아보	-11.3913
▁구해	-11.3921
연출	-11.3924
겨울	-11.3936
여러	-11.3936
떼	-11.394
실험	-11.3941
거래	-11.3941
싫	-11.3942
▁잭	-11.3948
▁관심	-11.3955
라면	-11.3955
목적	-11.3957
▁정상	-11.3965
▁이탈리아	-11.3966
▁기사	-11.3975
시장	-11.3975
고수	-11.3981
▁상대	-11.4002
상자	-11.4084
▁회	-11.4093
원하	-11.4109
▁지켜	-11.4162
녀	-11.417
▁높	-11.4191
닿	-11.4204
▁부활	-11.4205
출소	-11.4205
폰	-11.4206
어딘가	-11.4206
·	-11.4206
뛰어넘	-11.4206
메시지	-11.4206
붉	-11.4206
비비안	-11.4206
침묵	-11.4206
앨범	-11.4206
계략	-11.4206
바쁘	-11.4206
설렘	-11.4206
합쳐	-11.4207
매니저	-11.4207
멋진	-11.4207
버렸	-11.4207
푸른	-11.4207
프로그램	-11.4207
협박	-11.4207
뮤직	-11.4207
무시무시	-11.4207
재앙	-11.4207
참석	-11.4207
코믹	-11.4208
종교	-11.4208
무림	-11.4208
파견	-11.4208
버스터	-11.4209
봉	-11.4209
슈퍼스타	-11.4211
옆집	-11.4215
탈	-11.4217
▁직장	-11.4218
먼	-11.4228
테사	-11.423
▁200	-11.4231
터지	-11.4232
▁이용	-11.4236
외계인	-11.4237
자매	-11.4238
벽	-11.4241
▁젊	-11.4244
방송	-11.4246
휴가	-11.4249
그림자	-11.4249
개발	-11.425
담긴	-11.425
촬영	-11.4253
스파이	-11.4254
우연	-11.4255
전국	-11.4261
▁지역	-11.4266
▁억	-11.4266
프로	-11.4266
지난	-11.4273
▁졸업	-11.4275
웃음	-11.4303
넘기	-11.4313
자라	-11.4314
객	-11.4319
▁세기	-11.4331
▁술	-11.4354
▁11	-11.436
▁198	-11.4363
m	-11.4372
사자	-11.4374
▁추격	-11.4416
괴	-11.4453
▁뜻	-11.4483
▁실력	-11.4496
살아오	-11.451
좋아하	-11.4511
▁영원	-11.4511
▁해진	-11.4512
치닫	-11.4512
미아	-11.4516
▁보스	-11.4518
추	-11.4526
▁볼	-11.4538
쉽	-11.4548
킹	-11.455
털	-11.456
탐정	-11.4563
흘러가	-11.4565
뜻밖	-11.4568
우승	-11.4573
빅	-11.4576
요괴	-11.4576
사라졌	-11.4577
관객	-11.4577
그림	-11.4577
용감	-11.4578
나무	-11.4589
경기	-11.4599
▁족	-11.4639
▁트	-11.4656
알아내	-11.4666
선고	-11.4668
마리아	-11.4703
▁다니	-11.4708
지진	-11.4723
복	-11.4733
▁생명	-11.4761
승	-11.4769
▁얼마	-11.4792
▁이해	-11.4802
▁이웃	-11.4802
학살	-11.4816
몰리	-11.4818
빨	-11.4819
규칙	-11.4822
낡	-11.4822
농구	-11.4822
베테랑	-11.4822
스릴러	-11.4822
스티븐	-11.4822
어려운	-11.4822
라이벌	-11.4822
쌍둥이	-11.4822
일생일대	-11.4822
출발	-11.4822
마이클	-11.4822
가르치	-11.4822
무작정	-11.4823
마스터	-11.4823
마련	-11.4823
엘리트	-11.4823
아이콘	-11.4824
온라인	-11.4824
외부	-11.4824
근무	-11.4824
소탕	-11.4824
외면	-11.4825
탕	-11.4825
정권	-11.4825
예요	-11.4825
현우	-11.4825
표적	-11.4826
▁파괴	-11.4826
영호	-11.4827
연관	-11.4828
영감	-11.4829
강호	-11.4829
▁인기	-11.4833
완수	-11.4835
▁타임	-11.4837
강제	-11.484
당일	-11.4842
너무나	-11.4845
성장	-11.4845
▁선수	-11.4846
치유	-11.4846
찾아간다	-11.4848
바치	-11.485
츠	-11.4856
휩싸이	-11.4857
주연	-11.4858
건달	-11.4861
속도	-11.4872
▁디	-11.4873
사막	-11.4874
없애	-11.4877
찍	-11.4881
▁만날	-11.4885
잠	-11.4886
하나님	-11.4895
희생	-11.4896
칼	-11.4897
독립	-11.4904
영화제	-11.4905
알려	-11.4905
쳐	-11.4914
▁긴	-11.4915
▁여러	-11.4923
하리	-11.4928
중년	-11.4968
▁레이	-11.4978
인방	-11.4987
이런	-11.4989
준다	-11.5025
▁결정	-11.5055
▁M	-11.5072
와중	-11.5076
락	-11.5083
한창	-11.5083
취	-11.5113
투	-11.5116
▁질	-11.5128
집사	-11.5128
▁몰래	-11.5129
▁권력	-11.513
감각	-11.5141
연합	-11.5144
다가가	-11.5144
뛰어나	-11.5145
내려오	-11.5146
외롭	-11.5146
▁감옥	-11.5149
주일	-11.515
적응	-11.515
누나	-11.5164
▁빚	-11.518
답	-11.5209
▁P	-11.5233
머물	-11.5249
행방	-11.5249
쇼	-11.525
폴	-11.5253
어제	-11.5254
걸음	-11.5254
불만	-11.5261
처한	-11.5267
G	-11.5278
처	-11.5282
나타난다	-11.5284
▁루	-11.5292
못한다	-11.5321
▁담긴	-11.5332
▁먼	-11.5348
나이	-11.535
▁르	-11.536
의식	-11.5363
▁~	-11.5364
묘	-11.5377
▁부르	-11.5393
낼	-11.5406
참	-11.5412
▁우연	-11.5421
레이스	-11.5422
▁프로	-11.5427
꾸	-11.5438
▁시골	-11.5443
▁공부	-11.5457
브	-11.546
기대	-11.5461
▁이혼	-11.5476
김호중	-11.5478
로맨틱	-11.5478
시스템	-11.5478
아름다움	-11.5478
아슬아슬	-11.5478
애니메이션	-11.5478
좌절	-11.5478
클래식	-11.5478
라디오	-11.5478
이렇게	-11.5478
절체절명	-11.5478
확신	-11.5478
뛰어든	-11.5478
복싱	-11.5478
처절	-11.5478
들려오	-11.5478
들려주	-11.5478
동아리	-11.5478
체험	-11.5478
폐허	-11.5478
자동차	-11.5478
시리즈	-11.5479
낭만	-11.5479
안녕	-11.5479
헤어진	-11.5479
벨라	-11.548
테러리스트	-11.548
아무런	-11.548
후계자	-11.548
폭로	-11.5481
타고난	-11.5481
오스카	-11.5482
최종	-11.5482
재민	-11.5482
원래	-11.5482
용병	-11.5483
거쳐	-11.5484
데려가	-11.5485
초유	-11.5487
인정받	-11.5489
강하	-11.5489
필사	-11.5492
작곡가	-11.5495
▁십	-11.5503
당해	-11.5503
빼앗기	-11.5505
질주	-11.5509
불편	-11.551
경고	-11.552
세월	-11.5522
손님	-11.5523
각기	-11.5525
▁찬	-11.553
여동생	-11.5539
과학자	-11.5543
해체	-11.5546
▁사냥	-11.5548
떨어진	-11.5552
어느새	-11.5554
▁뜻밖	-11.557
일생	-11.5571
맡기	-11.5586
경계	-11.5611
결혼식	-11.5613
탑승	-11.5613
막내	-11.562
아래	-11.5624
덕분	-11.5627
기술	-11.5628
▁벌	-11.5628
메가	-11.5636
인형	-11.5641
주의	-11.5649
▁우	-11.5661
▁휴가	-11.5673
착	-11.568
굴	-11.5715
▁킹	-11.5739
▁사라졌	-11.5743
색	-11.5743
▁모	-11.5752
▁스파이	-11.5758
▁갈	-11.5774
▁감시	-11.5775
▁김	-11.5782
▁싫	-11.5785
콜	-11.5794
▁국제	-11.5807
▁샘	-11.5808
져	-11.581
록	-11.582
특급	-11.582
베를린	-11.5823
맞닥뜨리	-11.5823
▁196	-11.5823
래	-11.5829
▁테	-11.5836
회장	-11.5839
▁폭탄	-11.5846
후배	-11.5849
한다는	-11.5852
꼬이	-11.5855
▁생일	-11.5861
에선	-11.5873
윤	-11.5893
어울리	-11.59
묻	-11.5901
하르	-11.5906
▁백	-11.5919
허	-11.5946
▁마치	-11.5947
폭풍	-11.5963
▁가정	-11.5971
빼앗	-11.5973
현	-11.5973
외딴	-11.5979
관리	-11.5979
밝혀	-11.5979
데뷔	-11.598
추락	-11.5981
싱글	-11.5981
찾아와	-11.5982
대니	-11.5994
망	-11.6017
▁곡	-11.6028
복판	-11.6035
▁요	-11.6036
▁그림	-11.6056
로마	-11.6058
무한	-11.6085
▁빅	-11.6091
▁요괴	-11.6093
▁관객	-11.61
▁크	-11.61
▁지난	-11.61
▁용감	-11.6102
봇	-11.6109
소영	-11.6114
기도	-11.6126
▁14	-11.6137
현수	-11.6156
바닷	-11.6157
특공대	-11.618
우여곡절	-11.618
갑작스레	-11.618
다이아몬드	-11.618
비하인드	-11.618
엉덩이	-11.618
열심히	-11.618
짧	-11.618
털어놓	-11.618
퍼포먼스	-11.618
펫	-11.618
됩니다	-11.618
습니까	-11.618
읽	-11.618
피아노	-11.618
맴돌	-11.618
쏟아지	-11.618
익숙	-11.618
기상천외	-11.618
자마자	-11.618
꺼내	-11.618
베트남	-11.618
들이닥치	-11.618
무서운	-11.618
첩보	-11.618
당황	-11.618
연합군	-11.618
허락	-11.618
결코	-11.618
거액	-11.6181
무덤	-11.6181
귀환	-11.6181
완전히	-11.6181
복잡	-11.6182
서핑	-11.6183
스승	-11.6183
뉴스	-11.6184
단독	-11.6185
출산	-11.6185
오가	-11.6185
시설	-11.6185
ᆯ지	-11.6186
방학	-11.6186
철선	-11.6186
식사	-11.6188
조국	-11.619
소심	-11.6192
치매	-11.6192
해커	-11.6194
거친	-11.6194
종말	-11.6196
호러	-11.6197
죄수	-11.6198
구해야	-11.6204
달러	-11.6205
▁급	-11.621
▁194	-11.6215
벌어진다	-11.6216
둘째	-11.6221
암살자	-11.6228
▁예	-11.623
예수	-11.624
위장	-11.6242
모아	-11.6251
낸	-11.6265
는지	-11.6269
새해	-11.6269
베	-11.6276
목격자	-11.6278
▁이루	-11.6279
지친	-11.6289
▁빈	-11.6291
지하	-11.6292
괴한	-11.6321
▁처한	-11.6339
올리	-11.6349
조종	-11.635
태어난	-11.636
러시아	-11.6361
신입	-11.6363
몇	-11.6364
크리스마스	-11.6364
시민	-11.6365
열린다	-11.637
수정	-11.638
계기	-11.6397
후보	-11.6404
▁폴	-11.6405
사라	-11.6407
짜	-11.6407
▁우승	-11.6415
▁개발	-11.644
구성	-11.6445
해적	-11.6452
▁나타난다	-11.6455
빠져들	-11.6461
▁촬영	-11.6477
▁못한다	-11.648
▁운동	-11.6488
꼬	-11.6503
드리	-11.6504
▁실험	-11.6504
▁집안	-11.6548
뒷	-11.6549
오랫	-11.655
나쁘	-11.6551
설상	-11.6551
합치	-11.6551
방황	-11.6551
▁25	-11.6552
사촌	-11.6556
뒤바뀌	-11.6556
광주	-11.6562
조작	-11.6563
▁폭력	-11.6576
▁현상	-11.6576
지원	-11.6581
지도	-11.6607
마시	-11.661
사기	-11.6631
▁범	-11.6632
각	-11.6642
▁정치	-11.6653
깨지	-11.6667
상하	-11.6711
▁나이	-11.6711
쿠	-11.6717
맛	-11.673
율	-11.6732
가게	-11.6737
빵	-11.6745
▁연주	-11.6751
중독	-11.676
경쟁	-11.676
확인	-11.676
출연	-11.6762
조건	-11.6763
과학	-11.6764
시험	-11.6764
드라마	-11.6764
운전	-11.6767
시체	-11.6769
가방	-11.6777
▁50	-11.6782
an	-11.6783
▁결혼식	-11.6784
▁쉽	-11.6853
따라가	-11.686
나날	-11.6868
래미	-11.6876
▁전국	-11.6877
▁거래	-11.6889
돌리	-11.69
설	-11.6908
쿨	-11.6916
▁의식	-11.6917
슬	-11.692
바닥	-11.693
봤	-11.6934
소동	-11.6934
데이트	-11.6935
가까운	-11.6935
넌	-11.6935
리차드	-11.6935
브로커	-11.6935
스페인	-11.6935
알코올	-11.6935
애틋	-11.6935
엉뚱	-11.6935
올림픽	-11.6935
첸	-11.6935
캡틴	-11.6935
멈출	-11.6935
손오공	-11.6935
이스라엘	-11.6935
사사건건	-11.6935
짠	-11.6935
떨어져	-11.6935
톤즈	-11.6935
꿈꾼다	-11.6935
송두리	-11.6935
아시아	-11.6935
벗어날	-11.6935
흩어지	-11.6935
BI	-11.6935
콤비	-11.6935
닥터	-11.6935
케이트	-11.6935
얼떨결	-11.6935
무섭	-11.6935
근처	-11.6935
자전거	-11.6935
챙기	-11.6935
소련	-11.6936
문득	-11.6936
혜영	-11.6936
폭풍우	-11.6936
처단	-11.6936
악령	-11.6936
올리버	-11.6936
모녀	-11.6937
▁죠	-11.6937
멀티	-11.6937
혼돈	-11.6938
포니	-11.6939
걷잡	-11.6939
본격	-11.6939
에이스	-11.694
심판	-11.694
백작	-11.6941
제작진	-11.6941
유력	-11.6942
조카	-11.6942
루크	-11.6944
장교	-11.6945
광대	-11.6946
화재	-11.695
전사	-11.6954
용서	-11.6954
벌인다	-11.6954
단체	-11.6955
연속	-11.6956
호감	-11.6957
지훈	-11.6959
이기	-11.696
아이돌	-11.696
악명	-11.696
예전	-11.6961
상담	-11.6965
해녀	-11.6965
지휘자	-11.6967
사정	-11.6967
끊기	-11.6971
소음	-11.6974
▁한다는	-11.6977
부대원	-11.6977
▁봄	-11.698
동기	-11.6981
▁심	-11.6988
▁구조	-11.6989
그레이스	-11.7005
자체	-11.7009
방주	-11.7011
남성	-11.7013
통과	-11.7015
일대	-11.7018
일자리	-11.7023
서기	-11.7043
전달	-11.7052
재산	-11.7073
▁노	-11.7073
입수	-11.7074
대장	-11.7101
두목	-11.7116
날리	-11.7123
▁밝혀	-11.7128
덕	-11.7129
▁빼앗	-11.713
라라	-11.7141
언	-11.7144
인데	-11.7151
▁싱글	-11.7151
▁찾아와	-11.7154
▁대니	-11.7159
한마디	-11.7161
P	-11.7163
곰	-11.7165
핵	-11.7165
ᆫ데	-11.7167
▁경계	-11.7172
D	-11.7172
칸	-11.7173
장군	-11.7173
닉	-11.7174
남긴	-11.7177
유령	-11.7177
사로잡	-11.7181
깨어난	-11.7181
증거	-11.7181
시켜	-11.7182
불구	-11.7183
도박	-11.7186
위치	-11.7188
놀이	-11.719
게다가	-11.7191
뒤집	-11.7191
▁빌리	-11.7197
연기	-11.7201
▁알려	-11.7213
감성	-11.7213
수감	-11.7214
▁내리	-11.7224
▁로마	-11.7225
▁법	-11.7232
심리	-11.7233
▁성장	-11.7246
▁준다	-11.7279
▁떼	-11.7295
시인	-11.7299
강한	-11.7303
▁실	-11.731
▁방문	-11.7316
▁모아	-11.7316
작곡	-11.7317
▁탄	-11.7321
항공	-11.7326
꿉	-11.7334
어긋나	-11.7335
저지르	-11.7336
구역	-11.7338
부패	-11.7339
애쓰	-11.734
해고	-11.7358
그만두	-11.7361
거치	-11.7369
커지	-11.737
▁견	-11.7384
장면	-11.739
▁옛	-11.7412
령	-11.7434
▁A	-11.7444
▁태어난	-11.7446
▁암살	-11.7463
▁잠	-11.748
▁제작	-11.7497
칠	-11.7499
▁사라	-11.7514
▁떨어진	-11.7529
▁시민	-11.7534
▁몇	-11.7538
한테	-11.754
▁열린다	-11.7544
▁꾸	-11.7551
▁데뷔	-11.7557
▁북	-11.7559
▁추락	-11.7563
릭	-11.7572
▁소설	-11.7578
▁아래	-11.7587
딘	-11.7591
데이	-11.7591
▁쇼	-11.7593
건너	-11.7594
▁인형	-11.7607
밑	-11.7607
벤	-11.7609
배신	-11.7609
모른	-11.761
춤	-11.7612
계약	-11.7612
아홉	-11.7614
가까워	-11.7614
런	-11.7614
파트너	-11.7614
코미디	-11.7615
사라져	-11.7615
걸까	-11.7616
피터	-11.7616
소개	-11.7619
생물	-11.7619
심장	-11.762
눈물	-11.7623
보안	-11.7625
인질	-11.7629
제주	-11.763
반하	-11.7634
▁나무	-11.7674
▁웃음	-11.768
▁나날	-11.768
심하	-11.7699
턴	-11.7734
션	-11.7739
책임	-11.7739
쌍	-11.7745
리사	-11.775
ᅧ	-11.7751
전대미문	-11.7751
클레어	-11.7752
간신히	-11.7752
데이비드	-11.7752
레전드	-11.7752
멸망	-11.7752
붕괴	-11.7752
앨리스	-11.7752
오케스트라	-11.7752
움직임	-11.7752
테일러	-11.7752
티격태격	-11.7752
펼친다	-11.7752
포켓몬	-11.7752
피아니스트	-11.7752
폐쇄	-11.7752
베스트셀러	-11.7752
균열	-11.7752
빠졌	-11.7752
트럭	-11.7752
is	-11.7752
까칠	-11.7752
퇴마	-11.7752
쿵푸	-11.7752
프레디	-11.7752
덮치	-11.7752
매료	-11.7752
유혹	-11.7752
맹세	-11.7752
취직	-11.7752
노출	-11.7752
공존	-11.7753
업계	-11.7753
조흥	-11.7753
시킬	-11.7753
조용히	-11.7753
공식	-11.7753
가이드	-11.7754
출전	-11.7754
우린	-11.7754
외로운	-11.7754
포함	-11.7754
포드	-11.7754
실마리	-11.7755
환생	-11.7755
결말	-11.7755
불허	-11.7756
보안관	-11.7758
될까	-11.7759
전성기	-11.7759
소통	-11.776
약물	-11.776
그립	-11.7761
무술	-11.7762
콜라	-11.7764
조종사	-11.7765
신청	-11.7766
소정	-11.7766
미미	-11.7767
집착	-11.7767
최선	-11.7767
반려	-11.7773
태영	-11.7773
풀리	-11.7775
군단	-11.778
우주선	-11.778
목사	-11.7781
제주도	-11.7783
추격전	-11.7786
제공	-11.7786
▁기대	-11.7792
시위	-11.7794
나영	-11.7796
광기	-11.7798
만류	-11.7805
마마	-11.7807
군대	-11.7809
무명	-11.7812
할수록	-11.7814
슬프	-11.7815
왕비	-11.7815
하루카	-11.7826
은데	-11.7831
장치	-11.7836
▁점	-11.7852
▁24	-11.7857
▁아라	-11.786
대작전	-11.7889
▁시체	-11.7932
사내	-11.7943
필	-11.7946
슈	-11.7951
본인	-11.7956
▁류	-11.7965
고객	-11.7966
▁벽	-11.7972
짐	-11.7991
▁구성	-11.8
렌	-11.8003
▁막내	-11.8016
떠돌	-11.8045
돌연	-11.8051
▁철	-11.8056
빼	-11.8061
남겨진	-11.8064
갇힌	-11.8065
카메라	-11.8067
윌	-11.8068
헨리	-11.8069
맘	-11.8069
입학	-11.8069
너무	-11.8071
시티	-11.8072
중심	-11.8077
▁탐정	-11.8081
예고	-11.8093
모인	-11.8094
금기	-11.8102
▁금	-11.8114
▁글	-11.8114
촌	-11.8122
▁V	-11.8142
제한	-11.8143
따	-11.8148
지상	-11.8154
▁윤	-11.8161
마르	-11.8178
서툴	-11.8186
좁	-11.8186
도사리	-11.8187
▁16	-11.8187
나아가	-11.8192
물리치	-11.8192
누리	-11.8195
꾸리	-11.8195
놓치	-11.8204
편집	-11.8212
돼지	-11.8237
▁머리	-11.8251
▁남긴	-11.8265
근	-11.8293
고래	-11.8294
이나	-11.8297
▁당	-11.8328
▁닉	-11.8347
갱	-11.835
▁불구	-11.8355
▁종	-11.8355
▁사로잡	-11.8356
▁깨어난	-11.8357
▁시켜	-11.8357
▁위치	-11.8358
출	-11.8364
독	-11.8377
▁드라마	-11.8383
▁약	-11.8386
운	-11.8409
▁크리스마스	-11.8409
터널	-11.8414
▁계기	-11.8424
픈	-11.8438
▁탑승	-11.8466
▁알리	-11.8476
▁예술	-11.8477
▁사기	-11.8494
켜	-11.8503
누	-11.8506
▁무한	-11.8515
으려	-11.8515
곤	-11.852
먹이	-11.8523
혈	-11.8526
미술	-11.8528
달려	-11.8529
▁경기	-11.8532
조각	-11.8535
탐사	-11.8536
소방	-11.8537
점령	-11.8538
뛰	-11.8538
밍	-11.8539
배달	-11.8543
자취	-11.8543
미친	-11.8544
부상	-11.8546
황금	-11.8546
은퇴	-11.8547
무시	-11.8554
참가	-11.8568
보여	-11.8574
은행	-11.8575
메이	-11.8577
▁남성	-11.8586
국적	-11.8587
▁겨울	-11.859
고용	-11.8593
쳤	-11.8612
제자	-11.8612
슨	-11.8615
a	-11.8619
▁덕	-11.862
튼	-11.8627
어쩌	-11.8632
고난	-11.8632
아프리카	-11.8633
▁40	-11.8635
여고	-11.8639
리스트	-11.864
률	-11.864
닥친	-11.8641
브로드웨이	-11.8641
숄	-11.8641
시네마	-11.8641
아마존	-11.8641
유튜브	-11.8641
이벤트	-11.8641
천천히	-11.8641
컴퍼니	-11.8641
페이지	-11.8641
스펙터클	-11.8641
혹독	-11.8641
캐서린	-11.8641
셰프	-11.8641
블록	-11.8641
쓰러지	-11.8641
침공	-11.8641
심지어	-11.8641
크리스틴	-11.8641
녀석	-11.8641
잠수함	-11.8641
직업	-11.8641
결투	-11.8641
돌연변이	-11.8641
죄책감	-11.8641
금의위	-11.8641
물고기	-11.8641
공무원	-11.8641
시한부	-11.8642
베스트	-11.8642
오로지	-11.8642
교회	-11.8642
험난	-11.8642
조폭	-11.8642
꼬여	-11.8642
그래도	-11.8643
소환	-11.8643
원정대	-11.8643
교감	-11.8643
그리운	-11.8643
삼촌	-11.8643
▁18	-11.8643
방송국	-11.8644
충만	-11.8644
열광	-11.8644
소망	-11.8644
타깃	-11.8644
미묘	-11.8644
초특급	-11.8644
정글	-11.8644
도망친다	-11.8645
여느	-11.8645
갱단	-11.8646
물체	-11.8647
예정	-11.8648
자칭	-11.8648
복제	-11.8649
학대	-11.8649
어느덧	-11.8649
어쩌다	-11.865
내린다	-11.8651
진학	-11.8653
개최	-11.8654
연구소	-11.8655
제이미	-11.8656
원주민	-11.8656
조정	-11.8657
당했	-11.866
난생	-11.8666
걸작	-11.8668
좀처럼	-11.8668
별장	-11.8669
며칠	-11.8669
건강	-11.867
술집	-11.867
태우	-11.8672
스물	-11.8674
조제	-11.8675
온몸	-11.8677
▁베	-11.8678
정리	-11.8679
여배우	-11.868
희생자	-11.868
▁모른	-11.8684
차리	-11.8684
신화	-11.8684
이끌려	-11.8685
첫째	-11.8691
얼마나	-11.8693
선장	-11.8698
매년	-11.8699
일삼	-11.87
층	-11.8701
이끌리	-11.8704
명작	-11.8708
천사	-11.8713
초보	-11.8716
▁웃	-11.8716
결의	-11.8724
▁봉	-11.8732
갈수록	-11.8732
불가	-11.8733
▁괴	-11.8734
▁권	-11.8735
마야	-11.8738
지루	-11.8738
기괴	-11.8745
해피	-11.8745
적극	-11.8749
▁전문	-11.8752
애인	-11.8757
주위	-11.8758
▁벤	-11.8774
이란	-11.8776
의미	-11.8776
▁가까워	-11.8779
감지	-11.8782
i	-11.8785
▁걸까	-11.8789
▁피터	-11.8791
▁코미디	-11.8791
상사	-11.8792
▁사라져	-11.8792
숙	-11.8792
해군	-11.8798
▁17	-11.8812
인천	-11.8824
▁뒤집	-11.8829
▁시험	-11.8848
90	-11.8851
사업가	-11.8864
기상	-11.8883
아무것	-11.8895
▁기술	-11.8898
뜻밖에	-11.8899
▁외딴	-11.89
진수	-11.8917
혼	-11.8936
▁밀	-11.8939
▁토	-11.8941
지미	-11.895
많이	-11.895
끊	-11.8962
머	-11.8966
모자	-11.8972
친다	-11.8974
n	-11.8977
▁목적	-11.8982
▁잔	-11.8984
▁사업	-11.8985
수학	-11.8996
의지	-11.9006
▁격	-11.9009
탐험가	-11.9012
그렇	-11.9019
혁명	-11.9027
뚫	-11.9031
옷	-11.9036
반란	-11.9037
쓴	-11.9037
축구	-11.9038
탈옥	-11.9039
느낀	-11.9039
모여	-11.904
고급	-11.9041
불법	-11.9043
불러	-11.9043
에너지	-11.9043
맺	-11.9043
메리	-11.9046
식물	-11.9046
불과	-11.9047
충	-11.9047
그리스	-11.9049
아주	-11.9056
강도	-11.906
▁라면	-11.9081
금지	-11.9082
건축	-11.9096
으나	-11.9099
▁반대	-11.9108
다정	-11.9109
약혼	-11.9112
자고	-11.9115
공항	-11.9116
Pre	-11.9117
ᅦ	-11.9117
ᄊ	-11.9117
ys	-11.9117
장례	-11.9117
▁193	-11.9117
눈부시	-11.9118
위태	-11.9118
뒤로하	-11.9119
▁쉬	-11.912
멋지	-11.9121
누비	-11.9126
학자	-11.9129
선보이	-11.9131
치밀	-11.9134
▁메	-11.914
기차	-11.9145
▁197	-11.9152
▁남겨진	-11.9154
▁갇힌	-11.916
▁모인	-11.9169
▁즈	-11.9171
▁칸	-11.9174
아이스	-11.9175
자동	-11.9177
되돌리	-11.9178
y	-11.9189
나온	-11.9191
▁너무	-11.9217
▁80	-11.923
▁바라	-11.9234
▁헨리	-11.9238
▁맘	-11.9244
▁윌	-11.9245
▁시티	-11.9248
▁소개	-11.9268
▁파트너	-11.9275
▁춤	-11.9276
▁눈물	-11.928
▁증거	-11.9297
기간	-11.9299
고요	-11.9303
▁낸	-11.9317
▁조건	-11.9327
▁확인	-11.9336
수면	-11.9345
▁연출	-11.9362
둔	-11.9373
전장	-11.9376
▁콜	-11.9388
지방	-11.9405
내기	-11.9416
▁칼	-11.9433
▁찍	-11.9443
광	-11.9466
냐	-11.9487
장기	-11.9507
생긴	-11.9509
▁걷	-11.9531
샤	-11.9532
클	-11.9533
고문	-11.9547
플	-11.9554
벗	-11.9561
틈	-11.9564
전학	-11.9565
작업	-11.9565
퀸	-11.9568
잖아	-11.9569
나타났	-11.9569
훔쳐	-11.9569
키스	-11.957
극단	-11.9571
애비	-11.9573
동거	-11.9575
버려진	-11.9576
정원	-11.9578
수업	-11.9581
일어난다	-11.9582
현대	-11.9582
리더	-11.9585
눈치	-11.9591
나간다	-11.9603
센	-11.9604
소니	-11.9604
▁창	-11.9608
믹	-11.9615
슬픈	-11.9615
첨단	-11.9615
호시탐탐	-11.9617
소프라노	-11.9617
&	-11.9617
▁릴리	-11.9617
글로벌	-11.9617
도라에몽	-11.9617
독특	-11.9617
레스토랑	-11.9617
바이올렛	-11.9617
벙커	-11.9617
서바이벌	-11.9617
시나리오	-11.9617
아저씨	-11.9617
투쟁	-11.9617
프로덕션	-11.9617
깜짝	-11.9617
카르텔	-11.9617
냄새	-11.9617
눈부신	-11.9617
빠뜨리	-11.9617
봉쇄	-11.9617
엘렌	-11.9617
컴백	-11.9617
파워레인저	-11.9617
외로움	-11.9617
파이트	-11.9617
커다란	-11.9617
▁오가	-11.9617
급습	-11.9617
살아갈	-11.9617
청각	-11.9617
필립	-11.9617
깃든	-11.9617
박물관	-11.9617
낙원	-11.9617
흥미	-11.9617
괴롭힘	-11.9618
베이비	-11.9618
힘겹	-11.9618
클로이	-11.9618
씨제이	-11.9618
제시카	-11.9618
매직	-11.9618
여고생	-11.9618
동경	-11.9619
미팅	-11.9619
헌신	-11.9619
담겨	-11.9619
직면	-11.9619
행방불명	-11.9619
무죄	-11.962
업무	-11.962
민재	-11.962
재벌	-11.9621
시합	-11.9621
구독자	-11.9622
태양	-11.9622
들어온다	-11.9622
또래	-11.9622
승진	-11.9622
버디	-11.9623
요요	-11.9623
돌입	-11.9624
파피	-11.9624
카드	-11.9625
질문	-11.9625
모였	-11.9625
공원	-11.9625
강요	-11.9626
오픈	-11.9626
정보국	-11.9627
불시	-11.963
제약	-11.9633
끊임없이	-11.9634
부유	-11.9635
문서	-11.9636
구마	-11.9636
간호	-11.9636
될수록	-11.9638
존스	-11.9639
건축가	-11.9639
아끼	-11.9647
진화	-11.9648
휩싸인다	-11.9649
부산	-11.965
으면서	-11.965
이웃집	-11.9651
▁쥐	-11.9654
철없	-11.9657
옛날	-11.966
서열	-11.9664
후회	-11.9665
제자리	-11.9665
버전	-11.9666
시신	-11.9683
▁으려	-11.9692
은폐	-11.9695
죽인	-11.9697
영화관	-11.9707
담보	-11.971
▁통	-11.9718
올해	-11.9721
목적지	-11.9723
비리	-11.9723
▁아홉	-11.9725
▁무시	-11.973
▁SH	-11.9736
▁보여	-11.9738
거장	-11.9743
호주	-11.9748
▁입학	-11.9752
▁카메라	-11.9753
인공	-11.9753
▁금기	-11.9766
그냥	-11.9767
내부	-11.9768
원전	-11.9772
수연	-11.9775
유산	-11.9779
▁릭	-11.9779
원고	-11.9782
막대	-11.9783
▁심장	-11.9784
은둔	-11.9784
사라진다	-11.9787
남다른	-11.9788
은숙	-11.9793
▁장군	-11.9808
▁아주	-11.9809
세라	-11.981
지수	-11.9811
친하	-11.9812
인사	-11.9813
이때	-11.9827
▁불가	-11.9836
▁끊	-11.9854
틀	-11.9861
이브	-11.9892
소설가	-11.9894
▁편	-11.9908
▁묻	-11.9914
야오	-11.9923
지나가	-11.9943
리얼	-11.9944
말기	-11.9946
▁의미	-11.9949
▁답	-11.996
▁짓	-11.9968
때로	-11.9975
써	-11.9975
.!	-11.9991
그동안	-12.0003
▁연	-12.0033
▁절	-12.0036
마이	-12.0041
규	-12.0044
▁멀	-12.0052
육	-12.0055
끼	-12.0056
사도	-12.006
놀	-12.0078
▁전사	-12.009
홍	-12.01
아더	-12.0106
▁민	-12.0109
발명	-12.0109
보낸	-12.0114
늦	-12.0114
탑	-12.0115
신경	-12.0116
엽	-12.012
콩	-12.012
주어진	-12.0121
출근	-12.0121
마주친	-12.0121
지망	-12.0122
뿌리	-12.0123
히트	-12.0123
남녀	-12.0125
증명	-12.0126
반항	-12.0129
음식	-12.013
일당	-12.0131
정말	-12.0132
믿음	-12.0135
▁모여	-12.0137
▁느낀	-12.0139
구석	-12.0141
결과	-12.0143
무릅쓰	-12.0143
엉망	-12.0143
집어삼키	-12.0143
푸르	-12.0144
쫓겨나	-12.0144
에릭	-12.0148
둥이	-12.0148
피우	-12.0149
외치	-12.015
비행사	-12.0165
인정	-12.0172
로드	-12.0175
사귀	-12.0181
▁나온	-12.0184
가든	-12.0195
▁투	-12.02
인도	-12.0206
거세	-12.0209
사채	-12.0216
착하	-12.0216
니다	-12.0218
▁맺	-12.0223
▁메리	-12.0224
다리	-12.0237
▁끝나	-12.0239
▁황금	-12.0259
▁은퇴	-12.026
▁위태	-12.0269
▁다정	-12.0278
▁중심	-12.0288
▁생긴	-12.0307
사원	-12.0319
기지	-12.0327
▁인질	-12.0328
o	-12.0333
▁지상	-12.0336
여행기	-12.0337
한계	-12.0338
신지	-12.0354
▁참	-12.0379
▁출연	-12.0381
k	-12.0395
▁울	-12.0414
나갈	-12.0439
해진다	-12.0451
▁친	-12.0478
장수	-12.0513
졌	-12.0548
워	-12.0564
강의	-12.057
▁60	-12.0586
옥	-12.0599
▁N	-12.0613
척	-12.0617
풍	-12.0636
갑	-12.0646
끌	-12.0648
빙	-12.0651
돌아간다	-12.0654
로이	-12.0655
▁이끌	-12.0658
▁혈	-12.0658
▁밥	-12.0675
▁벗	-12.0684
부하	-12.0687
▁소문	-12.0689
구독	-12.0695
댄스	-12.0695
깔	-12.0696
빨간	-12.0697
튀	-12.0699
로라	-12.0699
두려운	-12.0699
셨	-12.0699
넘나드	-12.0699
뜨거웠	-12.0699
그토록	-12.0699
드라이버	-12.0699
레시피	-12.0699
리처드	-12.0699
무심코	-12.0699
신데렐라	-12.0699
아프가니스탄	-12.0699
어려움	-12.0699
어벤져스	-12.0699
에이전트	-12.0699
잠깐	-12.0699
캘리포니아	-12.0699
프로듀서	-12.0699
아카네	-12.0699
도깨비	-12.0699
마일스	-12.0699
반짝이	-12.0699
순식	-12.0699
아카리	-12.0699
의뢰인	-12.0699
아이디어	-12.0699
라일리	-12.0699
화이트	-12.0699
넘나들	-12.0699
아이스크림	-12.0699
엄격	-12.0699
셀러	-12.0699
코로나	-12.0699
테이프	-12.0699
브라질	-12.0699
단숨에	-12.0699
전염병	-12.0699
폭파	-12.0699
카즈마	-12.0699
통쾌	-12.0699
매혹	-12.0699
수용소	-12.0699
엠마	-12.0699
오두막	-12.0699
메이커	-12.0699
응원	-12.0699
닥치	-12.0699
황당	-12.07
귀여운	-12.07
언덕	-12.07
사로잡히	-12.07
그리움	-12.07
연습	-12.07
머릿속	-12.07
윗집	-12.07
미셸	-12.07
모델	-12.07
안토니오	-12.07
루벤	-12.07
친절	-12.07
끊긴	-12.0701
울프	-12.0701
실망	-12.0701
퍼진다	-12.0701
리셋	-12.0701
소꿉친구	-12.0701
최근	-12.0701
유출	-12.0701
추악	-12.0701
동준	-12.0702
찰나	-12.0702
시련	-12.0702
간호사	-12.0702
언론	-12.0702
증세	-12.0702
교육	-12.0702
저승	-12.0702
놀라	-12.0702
서퍼	-12.0702
서툰	-12.0702
소닉	-12.0702
혜정	-12.0703
뒤늦	-12.0703
사춘기	-12.0703
내딛	-12.0704
조쉬	-12.0704
외국인	-12.0704
독립군	-12.0704
우디	-12.0704
가해자	-12.0704
요트	-12.0705
설화	-12.0705
래시	-12.0705
영입	-12.0705
역경	-12.0705
흑	-12.0706
머신	-12.0706
결전	-12.0706
제국	-12.0706
대체	-12.0706
앤	-12.0707
담당	-12.0707
통화	-12.0708
국장	-12.0708
해적단	-12.0708
병구	-12.0708
꼭	-12.0708
엘리	-12.0709
헤매	-12.0709
기획	-12.0709
순조	-12.0709
침략	-12.071
핑장	-12.071
환경	-12.071
줘	-12.071
연극	-12.071
차례	-12.0711
키워	-12.0711
일급	-12.0711
파워	-12.0711
찬란	-12.0712
네즈	-12.0712
추리	-12.0713
카바	-12.0714
대령	-12.0714
관장	-12.0715
진범	-12.0715
악화	-12.0715
불안감	-12.0715
개입	-12.0716
뒤쫓	-12.0716
사용	-12.0718
살인범	-12.072
복수심	-12.0723
▁점령	-12.0724
▁죽인	-12.0725
진호	-12.0725
신문	-12.0725
신체	-12.0726
모른다는	-12.0727
전복	-12.0729
강남	-12.0731
호화	-12.0731
바닷가	-12.0732
소소	-12.0733
구조대	-12.0735
▁플	-12.0735
기다린다	-12.0737
원작	-12.074
산호	-12.0742
해킹	-12.0742
▁나타났	-12.0749
▁그리스	-12.075
▁훔쳐	-12.0752
▁버려진	-12.0752
수용	-12.0753
다니엘	-12.0755
태국	-12.0755
▁애비	-12.0755
▁눈치	-12.0758
아리	-12.0758
현지	-12.0763
▁27	-12.0763
▁일어난다	-12.0765
전한다	-12.0766
더니	-12.0768
집요	-12.0768
민수	-12.0772
▁AI	-12.0773
경찰서	-12.0779
▁나간다	-12.078
▁식물	-12.0783
맛있	-12.0784
▁에너지	-12.0787
다짐	-12.0788
▁설	-12.0792
대형	-12.0793
인권	-12.0794
날씨	-12.0796
갇힌다	-12.0807
▁미친	-12.0816
파도	-12.082
가졌	-12.0824
사소	-12.0824
▁지도	-12.0835
▁레	-12.0841
▁쿠	-12.0846
혜성	-12.0851
속이	-12.0853
전선	-12.0855
▁추	-12.0859
말리	-12.0866
을까요	-12.0878
니나	-12.0879
▁계약	-12.0889
조선인	-12.0891
▁W	-12.0893
▁관리	-12.0902
▁뜨	-12.0902
일진	-12.0903
알바	-12.0906
▁중독	-12.0909
도난	-12.091
생사	-12.0914
▁유령	-12.0917
대학교	-12.0936
능	-12.0945
▁경쟁	-12.0948
문자	-12.0948
▁a	-12.0954
음악가	-12.0962
연출가	-12.0962
▁장기	-12.0964
▁사라진다	-12.0971
한국인	-12.0973
▁신입	-12.0985
▁러시아	-12.0988
M	-12.0989
마음속	-12.0994
▁마이	-12.0996
신고	-12.0999
대치	-12.0999
접하	-12.1006
개인	-12.1029
▁져	-12.103
악어	-12.1031
▁나오	-12.1052
▁누	-12.1058
진정한	-12.1075
스트	-12.1079
▁머물	-12.1092
▁행방	-12.1095
나와	-12.1103
한쪽	-12.1106
▁어서	-12.1106
▁츠	-12.1115
▁독립	-12.1128
로저	-12.1128
골	-12.1129
뇌	-12.1136
원수	-12.1163
도진	-12.1201
▁주어진	-12.1215
▁마주친	-12.1222
▁보낸	-12.1225
▁정말	-12.1227
해양	-12.1237
웨	-12.1246
t	-12.1268
흥	-12.1269
스톤	-12.127
커	-12.1271
▁희	-12.1275
낸다	-12.1279
격투	-12.1279
깃	-12.1281
▁랑	-12.1282
겸	-12.1282
값	-12.1283
풋	-12.1283
달아나	-12.1287
이루어지	-12.1288
넘어가	-12.1288
끼치	-12.1289
빨리	-12.129
▁쓴	-12.1291
차갑	-12.1291
절명	-12.1292
거칠	-12.1292
내려가	-12.1301
▁k	-12.1305
루나	-12.1306
레이서	-12.1307
원정	-12.1308
▁매	-12.131
웬	-12.1311
▁일당	-12.1313
겁	-12.1315
달려가	-12.1315
블	-12.1317
링	-12.1317
딱	-12.1317
▁믿음	-12.1318
▁탈옥	-12.132
▁리얼	-12.132
해변	-12.1322
▁인정	-12.1323
델	-12.1324
비상	-12.1328
레미	-12.133
묵	-12.133
갓	-12.133
유괴	-12.1331
▁에릭	-12.1332
동창	-12.1333
재판	-12.1333
챔피언	-12.1333
궁금	-12.1334
구원	-12.1336
가요	-12.1339
수술	-12.1339
검사	-12.1341
▁퀸	-12.1342
▁동거	-12.1345
국내	-12.1345
잔인	-12.1348
▁정원	-12.1349
놓인	-12.135
세운다	-12.1353
▁수업	-12.1353
생생	-12.1354
수리	-12.1356
하우스	-12.1359
기밀	-12.1363
높이	-12.1367
사제	-12.138
마비	-12.1385
의도	-12.1389
▁참가	-12.1389
▁석	-12.1391
변	-12.1402
못해	-12.1406
새로	-12.1406
▁밍	-12.1418
▁런	-12.1424
가두	-12.1428
라서	-12.1439
▁고용	-12.1449
▁예고	-12.1456
▁제자	-12.1456
▁은행	-12.1457
타고	-12.1477
도주	-12.1483
▁연기	-12.1486
▁로이	-12.15
▁인사	-12.1511
리스	-12.1514
▁500	-12.1532
00	-12.1544
취하	-12.1552
자전	-12.1574
이동	-12.1577
천하	-12.1613
른	-12.1636
r	-12.1651
▁감	-12.1653
ON	-12.1664
태도	-12.1667
쓰이	-12.1672
대상	-12.1688
▁호기	-12.1723
▁걸음	-12.1725
전기	-12.173
으로서	-12.1733
▁체	-12.1736
▁떠돌	-12.1752
이러	-12.1753
▁인도	-12.1763
▁지하	-12.1779
수중	-12.1786
합	-12.1788
▁포	-12.1789
닐	-12.1825
엘라	-12.1827
▁엘리	-12.183
베르	-12.1839
림	-12.1841
냈	-12.1849
뤄	-12.1856
두려워	-12.1863
은수	-12.1866
찌	-12.1869
엘	-12.1876
▁키워	-12.1881
▁줘	-12.1881
▁앤	-12.1888
몽	-12.1894
▁찬란	-12.1895
랄	-12.1897
▁차례	-12.1898
▁꼭	-12.1898
▁파워	-12.1898
도우	-12.1899
계절	-12.1906
틴	-12.1907
파이어	-12.1908
논	-12.1909
보인다	-12.191
몰아치	-12.1912
노동	-12.1912
핸드폰	-12.1912
돌이킬	-12.1912
일어났	-12.1912
그레첸	-12.1912
느낌	-12.1912
떠들썩	-12.1912
멜로디	-12.1912
몰아넣	-12.1912
방탄소년단	-12.1912
버라이어티	-12.1912
셰익스피어	-12.1912
스웨덴	-12.1912
스탈린	-12.1912
스테이지	-12.1912
스파이더맨	-12.1912
앙투아네트	-12.1912
에드몬드	-12.1912
에드워드	-12.1912
일촉즉발	-12.1912
페스티벌	-12.1912
흐름	-12.1912
김대건	-12.1912
뛰어드	-12.1912
알라딘	-12.1912
오히려	-12.1912
커리어	-12.1912
트로트	-12.1912
벼랑	-12.1912
샤이니	-12.1912
타일러	-12.1912
확률	-12.1912
아테나	-12.1912
비로소	-12.1912
슬립	-12.1912
디자인	-12.1912
미나토	-12.1912
외침	-12.1912
필름	-12.1912
머나먼	-12.1912
엎친	-12.1912
이치카	-12.1912
경훈	-12.1912
롯데	-12.1912
록하트	-12.1912
참혹	-12.1912
감춰진	-12.1912
풍경	-12.1912
제이슨	-12.1912
클라라	-12.1912
브라이언	-12.1912
촛불	-12.1912
헌터	-12.1913
댄서	-12.1913
소름	-12.1913
헬렌	-12.1913
설립	-12.1913
갈림길	-12.1913
총격	-12.1913
경매	-12.1913
동참	-12.1913
덤보	-12.1913
합세	-12.1913
보컬	-12.1913
표정	-12.1913
반응	-12.1913
필드	-12.1913
괴짜	-12.1913
쿠폰	-12.1913
돌봐	-12.1914
절벽	-12.1914
차량	-12.1914
경력	-12.1914
데려오	-12.1914
지붕	-12.1914
닌자	-12.1914
연희	-12.1914
돌고래	-12.1914
진욱	-12.1914
경미	-12.1914
망명	-12.1915
포식자	-12.1915
연루	-12.1915
재혼	-12.1915
복귀	-12.1915
갈망	-12.1915
테스트	-12.1915
랜스	-12.1915
윤영	-12.1915
얼음	-12.1915
실행	-12.1915
패배	-12.1915
루프	-12.1916
감당	-12.1916
팀플레이	-12.1916
타협	-12.1916
엽문	-12.1916
유랑	-12.1916
개봉	-12.1916
괴롭	-12.1917
교시	-12.1917
아오이	-12.1918
숙자	-12.1918
책임자	-12.1918
볼트	-12.1918
지망생	-12.1919
당국	-12.1919
태권도	-12.1919
혹은	-12.1919
감금	-12.1919
상금	-12.1919
선포	-12.1919
데려다	-12.192
민간	-12.192
화가	-12.1921
법정	-12.1921
존경	-12.1921
코난	-12.1922
▁써	-12.1922
훈	-12.1922
십자가	-12.1923
몰살	-12.1923
착수	-12.1923
파국	-12.1923
영문	-12.1923
▁증명	-12.1923
사이먼	-12.1924
극장판	-12.1925
느라	-12.1926
왜군	-12.1927
마술	-12.1927
설명	-12.1928
오브	-12.1928
철거	-12.1928
미공개	-12.1928
회담	-12.1928
때론	-12.1928
신곡	-12.1929
거북	-12.1929
남몰래	-12.1929
에블린	-12.1929
태권	-12.1929
매장	-12.193
단짝	-12.193
격리	-12.1931
두뇌	-12.1931
유진	-12.1931
동전	-12.1931
초등	-12.1932
▁다니엘	-12.1932
치르	-12.1934
봉사	-12.1935
▁음식	-12.1936
청산	-12.1937
접	-12.1938
▁남녀	-12.1938
행적	-12.1939
막강	-12.194
제외	-12.1941
더라도	-12.1943
무공	-12.1944
노라	-12.1944
착한	-12.1944
코마	-12.1945
서준	-12.1946
통보	-12.1948
무너진다	-12.1949
좀비	-12.195
상위	-12.195
지혜	-12.195
연대	-12.1951
세연	-12.1951
수사관	-12.1952
선박	-12.1953
일탈	-12.1954
시공간	-12.1955
사스	-12.196
▁J	-12.196
승자	-12.196
정면	-12.1961
존재감	-12.1965
마왕	-12.1965
열차	-12.1968
쌓	-12.1969
탐험대	-12.1969
▁잖아	-12.1972
▁키스	-12.1977
반장	-12.1978
보드	-12.1978
▁불러	-12.1979
쏟	-12.198
▁현대	-12.1983
긴장	-12.1983
▁둔	-12.1989
선명	-12.1989
▁로드	-12.1989
봐	-12.199
캐	-12.199
메인	-12.1991
핑	-12.1992
오른	-12.1993
들어간	-12.1993
돼	-12.1993
쓰레기	-12.1994
▁언	-12.1994
명문	-12.1994
어색	-12.1996
전통	-12.1998
뉴	-12.1998
언제	-12.1999
아일랜드	-12.1999
긴급	-12.1999
느껴	-12.2
산소	-12.2
공감	-12.2001
조용	-12.2002
공유	-12.2002
남북	-12.2002
▁부산	-12.2003
전우	-12.2003
▁부상	-12.2004
B	-12.2005
복지	-12.2007
스타일	-12.2008
역전	-12.2009
려면	-12.201
안정	-12.2011
해외	-12.2012
맞선	-12.2013
바비	-12.2014
▁불법	-12.2015
▁금지	-12.2016
명나라	-12.2017
남부	-12.2018
J	-12.2022
내려온	-12.2022
유나	-12.2029
제일	-12.203
사이비	-12.2033
모인다	-12.2034
입양	-12.2039
남동생	-12.204
▁배달	-12.2041
후손	-12.2048
▁뛰	-12.2052
리오	-12.2056
해저	-12.2074
쌓이	-12.2086
야간	-12.2086
병수	-12.2087
지영	-12.2087
가출	-12.2088
▁짐	-12.209
진주	-12.2092
▁렌	-12.2092
새기	-12.2096
바보	-12.2097
▁나와	-12.2101
신기	-12.2106
▁취	-12.2114
시내	-12.212
으려고	-12.2138
▁기간	-12.2138
정인	-12.214
기로	-12.2142
선발	-12.2142
분열	-12.2153
아국	-12.2157
비밀리	-12.2158
▁수감	-12.216
내면	-12.2161
전차	-12.2178
에요	-12.218
신사	-12.2183
안내	-12.2187
단지	-12.2189
지식	-12.22
영어	-12.2204
유리	-12.2233
▁규	-12.2234
전생	-12.2236
그대로	-12.2255
▁싸	-12.2255
▁희생	-12.2259
운동가	-12.2259
호수	-12.2265
▁승	-12.2317
여러분	-12.2325
▁프	-12.2332
▁린	-12.2332
끊이	-12.2345
방어	-12.2349
위해선	-12.2357
부지	-12.2373
▁각	-12.2393
떠	-12.241
속내	-12.2425
▁털	-12.2427
겨	-12.2444
▁꽃	-12.2449
▁놓인	-12.2453
▁혁명	-12.2465
끓	-12.2471
▁혼	-12.2475
▁방송	-12.2485
준다는	-12.2491
▁블	-12.2493
▁흑	-12.2495
서양	-12.2501
끌리	-12.2502
▁외계	-12.2507
줄게	-12.2511
▁겸	-12.2516
▁레미	-12.2526
이게	-12.2528
▁나갈	-12.2529
▁생생	-12.253
살아나	-12.253
▁기획	-12.2535
기발	-12.2535
▁연극	-12.2548
북극	-12.2559
▁침략	-12.2566
▁환경	-12.2566
맹	-12.2567
▁새로	-12.2567
▁필	-12.257
d	-12.2572
각각	-12.2573
흙	-12.2574
외국	-12.2575
페이스	-12.2575
환	-12.2576
앗	-12.2577
잎	-12.2578
g	-12.2579
돌아다니	-12.2579
예쁘	-12.2579
당첨	-12.2579
창조	-12.2579
식량	-12.2579
다이빙	-12.2579
접촉	-12.2579
절체	-12.258
▁13	-12.2581
레터	-12.2581
욕심	-12.2581
후계	-12.2582
▁21	-12.2583
골목	-12.2584
무용	-12.259
파크	-12.2591
▁출근	-12.2593
▁탑	-12.2595
▁못해	-12.2596
백만	-12.2597
소유	-12.2597
▁결과	-12.2598
▁콩	-12.2604
▁히트	-12.2605
솔	-12.2616
되살아나	-12.2629
반도	-12.2631
▁브	-12.2632
평	-12.264
▁리더	-12.265
밀리	-12.265
▁극단	-12.265
▁0	-12.2654
붙이	-12.2654
홀	-12.266
▁머	-12.2662
느	-12.2665
▁이동	-12.2665
죄	-12.2672
▁축구	-12.2685
발사	-12.2688
설계	-12.2689
만점	-12.2689
물리	-12.2689
휘	-12.2693
니까	-12.2694
패션	-12.2694
아치	-12.2695
팅	-12.2698
썸	-12.2699
영향	-12.2699
청소	-12.2699
스키	-12.27
짱	-12.27
린다	-12.2701
무도	-12.2705
처리	-12.2705
널	-12.2706
정복	-12.2707
▁산다	-12.2709
텐	-12.2709
예언	-12.2709
위안	-12.2709
공작	-12.271
블루	-12.2712
마블	-12.2714
나간	-12.2716
멀리	-12.2719
수영	-12.2724
X	-12.2725
사형	-12.2728
신세	-12.2729
포로	-12.2733
▁H	-12.2735
수호	-12.2736
자본	-12.2744
제보	-12.2749
자란	-12.2751
첫날	-12.2756
▁배신	-12.2758
안나	-12.2806
▁생물	-12.2817
대리	-12.2828
한눈	-12.2841
▁복	-12.2879
▁대장	-12.2882
전날	-12.2893
자는	-12.2918
▁22	-12.2952
▁쌓	-12.2957
돌이	-12.2964
▁홍	-12.297
거기	-12.2971
료	-12.298
항해	-12.303
지시	-12.305
▁오르	-12.308
▁돼	-12.3081
이내	-12.3085
무고	-12.3111
바탕	-12.3147
▁핑	-12.3153
룰	-12.3162
전해	-12.3166
▁느껴	-12.3178
▁뉴	-12.3179
일기	-12.3182
▁지원	-12.3188
▁조용	-12.3191
발전	-12.3196
▁맞선	-12.3204
혜	-12.3204
▁남부	-12.3207
찰	-12.3225
▁담당	-12.3227
스카	-12.323
▁국내	-12.3234
▁궁금	-12.3234
▁검사	-12.3235
▁챔피언	-12.3235
▁묵	-12.3236
▁기지	-12.3245
▁잔인	-12.3245
람	-12.3246
▁정인	-12.325
몬	-12.3259
▁기밀	-12.3261
익	-12.3266
협	-12.3273
플레이	-12.3273
▁척	-12.3278
▁헤매	-12.3281
▁사용	-12.3282
젤	-12.3285
▁지휘	-12.3286
딴	-12.3292
삐	-12.3293
th	-12.3293
승승장구	-12.3293
광활	-12.3293
노르웨이	-12.3293
로잘린	-12.3293
묵묵히	-12.3293
벤자민	-12.3293
비즈니스	-12.3293
뽀로로	-12.3293
스피드	-12.3293
업그레이드	-12.3293
엘비스	-12.3293
옵니다	-12.3293
자이언트	-12.3293
줄리엣	-12.3293
캐릭터	-12.3293
캔디맨	-12.3293
토마스	-12.3293
토오루	-12.3293
트래비스	-12.3293
파일럿	-12.3293
판타스틱	-12.3293
히틀러	-12.3293
앵커	-12.3293
착륙	-12.3293
가라앉	-12.3293
인터넷	-12.3293
챙겨	-12.3293
바이킹	-12.3293
탐욕	-12.3293
앙숙	-12.3293
휘말려	-12.3293
시카고	-12.3293
멘토	-12.3293
출구	-12.3293
사채업자	-12.3293
워커	-12.3293
응답	-12.3293
촉망	-12.3293
찾아다니	-12.3293
엉망진창	-12.3293
크루즈	-12.3293
밀라노	-12.3293
마티유	-12.3293
합격	-12.3293
약혼녀	-12.3293
확장	-12.3293
단번에	-12.3293
떠맡	-12.3293
곡절	-12.3293
협력	-12.3293
브루스	-12.3293
그래서	-12.3294
부푼	-12.3294
▁신기	-12.3294
▁~!	-12.3294
혹시	-12.3294
기타리스트	-12.3294
충동	-12.3294
협상	-12.3294
찰스	-12.3294
피싱	-12.3294
빌딩	-12.3294
택시	-12.3294
트롤	-12.3294
크림	-12.3294
드러난다	-12.3294
탈취	-12.3294
가로채	-12.3294
따스	-12.3294
마동석	-12.3294
폐교	-12.3294
환청	-12.3294
곧이어	-12.3294
맞추	-12.3294
호흡	-12.3295
천둥	-12.3295
파커	-12.3295
전면전	-12.3295
천외	-12.3295
반갑	-12.3295
버튼	-12.3295
출장	-12.3295
마칠	-12.3295
발휘	-12.3295
시달린다	-12.3295
방울	-12.3295
급속도	-12.3296
놀이터	-12.3296
포즈	-12.3296
범털	-12.3296
▁패	-12.3296
커피	-12.3296
현금	-12.3296
토니상	-12.3296
엘사	-12.3296
밀매	-12.3296
정희	-12.3296
동계	-12.3296
보살피	-12.3296
실직	-12.3296
평등	-12.3296
긴장감	-12.3297
펑크	-12.3297
선보인다	-12.3297
소냐	-12.3297
진솔	-12.3297
도박판	-12.3297
사라질	-12.3297
운반	-12.3297
반란군	-12.3298
진옥	-12.3298
국왕	-12.3298
석구	-12.3298
모리스	-12.3298
스런	-12.3298
편견	-12.3298
체스	-12.3299
카레	-12.3299
정반대	-12.3299
시몬	-12.3299
아름	-12.3299
끌려가	-12.3299
부녀	-12.3299
치킨	-12.3299
동진	-12.3299
올겨울	-12.3299
도망칠	-12.3299
취미	-12.3299
우여	-12.3299
써니	-12.33
추방	-12.33
삼키	-12.33
일기장	-12.33
베일리	-12.33
추정	-12.33
단골	-12.3301
가까워진다	-12.3301
파악	-12.3301
사립	-12.3301
눈치채	-12.3301
난민	-12.3301
신혼	-12.3301
달래	-12.3302
양아치	-12.3303
북미	-12.3303
진격	-12.3303
괴담	-12.3304
파란	-12.3304
테너	-12.3304
히라	-12.3305
량이	-12.3305
세출	-12.3305
심문	-12.3305
강력반	-12.3306
남다르	-12.3306
타오르	-12.3306
태운	-12.3307
신입생	-12.3307
불꽃	-12.3307
담배	-12.3308
메건	-12.3308
복원	-12.3308
정식	-12.3308
든든	-12.3309
연소	-12.3309
단절	-12.3309
야망	-12.3309
천국	-12.331
감상	-12.3311
유방	-12.3312
일본군	-12.3313
답장	-12.3314
소니아	-12.3314
미호	-12.3315
사나이	-12.3316
토루	-12.3316
서점	-12.3316
예비	-12.3318
둘러싸인	-12.3318
모건	-12.3319
그리워하	-12.3319
내밀	-12.332
초상	-12.332
▁엽	-12.332
마무리	-12.332
잔치	-12.3321
무모	-12.3323
산악	-12.3324
탈출구	-12.3324
비난	-12.3324
유물	-12.3325
▁뿌리	-12.3326
소타	-12.3326
엔진	-12.3329
지켜야	-12.333
재단	-12.333
차이	-12.3331
간판	-12.3331
심야	-12.3333
전쟁터	-12.3333
▁샤	-12.3336
치우	-12.3337
죽임	-12.3338
공자	-12.3341
보영	-12.3342
정후	-12.3349
진상	-12.335
동물원	-12.3352
본부	-12.3353
건조	-12.3354
수감자	-12.3355
미오	-12.3359
혼수	-12.336
마담	-12.3361
다시금	-12.3361
서막	-12.3362
흑인	-12.3362
▁틈	-12.3364
▁작업	-12.3365
지도자	-12.3366
자루	-12.3368
투자	-12.3368
사부	-12.3371
대대로	-12.3372
주디	-12.3374
용사	-12.3377
선원	-12.3378
도굴	-12.3384
하와이	-12.3388
시한	-12.3392
차마	-12.3394
소집	-12.34
오리	-12.3401
각지	-12.3404
가시	-12.3407
팀장	-12.3418
황	-12.3418
손길	-12.3419
전학생	-12.3426
▁조각	-12.3432
보호자	-12.3434
항	-12.3438
춘	-12.3443
신원	-12.3444
기태	-12.3446
정성	-12.3448
한반도	-12.345
감도	-12.3451
▁곤	-12.3453
서커스	-12.3456
▁자취	-12.3457
은혜	-12.3459
친해진	-12.3461
▁비행	-12.3463
쏘	-12.3464
닫	-12.3464
판매	-12.3464
다치	-12.3464
침입	-12.347
캠핑	-12.3473
셋	-12.3475
앉	-12.3476
상실	-12.3476
승부	-12.3476
시킨	-12.3477
환각	-12.3478
새벽	-12.3479
굳	-12.348
윌리엄	-12.348
장례식	-12.348
호프	-12.348
갑작	-12.348
캣	-12.348
뚜	-12.348
캐리	-12.3482
▁빼	-12.3483
숨긴	-12.3483
요리	-12.3484
▁대상	-12.3485
살려	-12.3488
솔로	-12.349
걸려	-12.3492
상속	-12.3492
어떠	-12.3494
웨이	-12.35
에밀리	-12.3501
야생	-12.3501
변해	-12.3502
소장	-12.3503
심해	-12.3511
시원	-12.3511
화해	-12.3519
▁허	-12.3521
청하	-12.3523
알려진	-12.3528
모양	-12.3542
기철	-12.3542
▁밑	-12.3544
아무리	-12.3544
기린	-12.3547
대중	-12.3568
의료	-12.3569
인식	-12.3572
부자	-12.3583
산다	-12.3584
똑같이	-12.3589
친한	-12.3589
듯이	-12.3595
달하	-12.3595
이틀	-12.3605
보리	-12.3612
자원	-12.3618
▁도박	-12.3621
▁운전	-12.3637
▁육	-12.3669
아담	-12.368
일부	-12.3688
금고	-12.3688
도전기	-12.3736
전투기	-12.3753
심한	-12.3776
▁해변	-12.3787
본다	-12.3793
▁링	-12.38
▁운	-12.3835
일명	-12.3858
▁봐	-12.3858
▁블루	-12.3888
▁가리	-12.389
▁널	-12.3895
인어	-12.3897
▁마블	-12.3901
▁멀리	-12.3901
▁탈	-12.3908
▁팅	-12.3909
▁신세	-12.3917
▁언제	-12.3924
▁자란	-12.3925
▁나간	-12.3929
▁m	-12.3948
▁긴급	-12.3952
▁구원	-12.3953
▁안정	-12.3955
▁공유	-12.3955
▁아일랜드	-12.3956
▁남북	-12.3957
테이	-12.3959
▁해외	-12.3961
산업	-12.3982
▁안나	-12.3984
▁재판	-12.3986
▁동창	-12.3987
어진	-12.3997
진지	-12.3999
▁세운다	-12.4004
▁사제	-12.4005
망자	-12.4013
▁하우스	-12.4016
아닌가	-12.4027
총성	-12.403
고장	-12.4031
망치	-12.4034
▁옆	-12.4034
▁끌	-12.4039
▁제국	-12.4056
보트	-12.4056
결승	-12.4059
탈환	-12.406
투성이	-12.4061
멜	-12.4061
톨	-12.4062
문어	-12.4062
싹	-12.4062
스티브	-12.4062
들여다보	-12.4062
얼떨	-12.4062
베이스	-12.4062
알아채	-12.4063
관람	-12.4063
붙잡히	-12.4063
귀염	-12.4064
꼬리	-12.4064
정찰	-12.4065
산맥	-12.4066
홀리	-12.4066
감돌	-12.4067
경제	-12.4068
소송	-12.4069
몰려오	-12.4074
잠수	-12.4076
▁신경	-12.4078
뒤덮이	-12.4079
설치	-12.4082
LA	-12.4082
안락	-12.4085
동일	-12.4085
보석	-12.409
통치	-12.4095
▁늦	-12.4096
충성	-12.4098
지능	-12.4106
변이	-12.4107
흔들	-12.4109
후유	-12.412
막아서	-12.4123
입장	-12.4126
전전	-12.413
수색	-12.4144
모나	-12.415
수관	-12.4156
앞서	-12.4161
떠나보내	-12.4163
도망가	-12.4166
유사	-12.4169
입대	-12.417
▁옷	-12.4181
▁.!	-12.4186
살대	-12.4187
▁건너	-12.4198
지대	-12.421
▁탐사	-12.4212
권태	-12.4217
▁전해	-12.422
축	-12.4225
고리	-12.4227
▁접	-12.4227
▁태양	-12.4229
▁불명	-12.423
요양	-12.4242
인종	-12.4247
던지	-12.4251
대사	-12.4262
욕	-12.428
징	-12.4281
으니	-12.4284
똑같	-12.4295
공동	-12.4295
닭	-12.4296
폭격	-12.4301
랜	-12.4301
옹	-12.4304
핀	-12.4305
운다	-12.4306
질투	-12.4306
유학	-12.4308
벌어진	-12.4308
무당	-12.4308
스포츠	-12.4309
설득	-12.4309
주부	-12.4309
전략	-12.4309
빌려	-12.431
바꾼	-12.431
정착	-12.431
▁다리	-12.4311
민주	-12.4311
숨겨	-12.4311
메트	-12.4312
생전	-12.4313
울려	-12.4314
스무	-12.432
테오	-12.432
수도	-12.4333
축하	-12.4337
XSN	-12.4337
군사	-12.4338
통신	-12.4342
무사	-12.4346
▁혜	-12.4359
▁곰	-12.4373
일제	-12.4376
에디	-12.438
은밀	-12.439
조지	-12.4393
▁율	-12.4406
l	-12.4408
평가	-12.4411
들이	-12.4419
그려	-12.4426
로스	-12.4432
태수	-12.4443
자비	-12.4446
기타	-12.4448
▁록	-12.4472
그게	-12.4478
반기	-12.4504
제로	-12.4522
리그	-12.4532
집중	-12.4544
▁시킨	-12.4594
▁해적	-12.4642
▁호프	-12.4647
▁냐	-12.4653
▁변해	-12.466
▁장례식	-12.4666
▁굳	-12.467
▁갑작	-12.4672
▁윌리엄	-12.4673
▁입양	-12.4676
▁캣	-12.4678
▁걸려	-12.4679
▁뚜	-12.468
▁숨긴	-12.4681
▁캐리	-12.4681
▁심해	-12.4682
▁어떠	-12.4682
킴	-12.4683
▁솔로	-12.4686
▁룰	-12.4698
▁들어간	-12.4699
▁에밀리	-12.47
선가	-12.4701
도장	-12.4704
▁느	-12.4704
▁아담	-12.4705
스텔라	-12.4716
▁휘	-12.4722
▁알려진	-12.4723
▁포로	-12.4742
속한	-12.4743
업자	-12.4751
▁공감	-12.4758
성민	-12.4768
▁유리	-12.4768
▁역전	-12.4788
한데	-12.4798
▁언론	-12.4816
▁교육	-12.4821
▁론	-12.4823
▁유괴	-12.4832
▁갓	-12.4832
퍼	-12.4844
떡	-12.4849
화학	-12.4855
둥	-12.4859
악인	-12.4862
잡혀	-12.4875
탁	-12.4876
▁놀	-12.4879
럽	-12.4881
혜진	-12.4885
느냐	-12.4887
우먼	-12.4888
토르	-12.4889
네덜란드	-12.4889
툰	-12.4891
놀림	-12.4891
떨	-12.4892
피에르	-12.4893
그만	-12.4893
덮인	-12.4893
출판	-12.4894
라이트	-12.4895
관찰	-12.4895
상륙	-12.4895
빠질	-12.4896
전도유망	-12.4896
글로리아	-12.4896
꿈꿔왔	-12.4896
냉혹	-12.4896
데이비스	-12.4896
디자이너	-12.4896
무뚝뚝	-12.4896
무르익	-12.4896
부다페스트	-12.4896
브란트	-12.4896
뿔뿔이	-12.4896
샌프란시스코	-12.4896
서스펜스	-12.4896
송라이터	-12.4896
스캔들	-12.4896
스테판	-12.4896
스튜디오	-12.4896
스트레스	-12.4896
시크릿	-12.4896
에베레스트	-12.4896
에피소드	-12.4896
엘리자베스	-12.4896
오리지널	-12.4896
우두머리	-12.4896
움직일	-12.4896
정약전	-12.4896
즐거움	-12.4896
컴퓨터	-12.4896
콘텐츠	-12.4896
키부츠	-12.4896
테니스	-12.4896
파헤칠	-12.4896
해럴드	-12.4896
햄릿	-12.4896
다프네	-12.4896
도저히	-12.4896
라우라	-12.4896
서비스	-12.4896
슬럼프	-12.4896
엔지니어	-12.4896
지극히	-12.4896
노가드	-12.4896
노준의	-12.4896
메탈리카	-12.4896
미디어	-12.4896
소울메이트	-12.4896
캐나다	-12.4896
벌어졌	-12.4896
사고뭉치	-12.4896
스마트폰	-12.4896
녹음	-12.4896
방사능	-12.4896
체이스	-12.4896
클리포드	-12.4896
브라운	-12.4896
탐색	-12.4896
그럼에도	-12.4896
뒤엉킨	-12.4896
침몰	-12.4896
러스티	-12.4896
돌아보	-12.4896
개그맨	-12.4896
스러움	-12.4896
스타트업	-12.4896
달라지	-12.4896
김창식	-12.4896
검찰	-12.4896
몬테	-12.4896
휴식	-12.4896
워킹	-12.4896
의기투합	-12.4896
착각	-12.4896
누르	-12.4896
모스크바	-12.4896
퍼피	-12.4896
동혁	-12.4896
사령관	-12.4896
증언	-12.4896
청혼	-12.4896
츠네오	-12.4896
무도회	-12.4896
화장실	-12.4896
거스르	-12.4896
체육관	-12.4896
논란	-12.4896
놀이공원	-12.4896
올라타	-12.4896
낙서	-12.4896
겁니다	-12.4896
목걸이	-12.4896
윤혁	-12.4896
교토	-12.4896
묘연	-12.4896
산호초	-12.4896
▁195	-12.4896
행운	-12.4897
상륙작전	-12.4897
귀엽	-12.4897
다이노	-12.4897
밑바닥	-12.4897
승객	-12.4897
뒤섞이	-12.4897
꺼지	-12.4897
영탁	-12.4897
빅풋	-12.4897
메이트	-12.4897
짐승	-12.4897
포착	-12.4897
젤리	-12.4897
운석	-12.4897
경우	-12.4897
답답	-12.4897
립	-12.4898
스미스	-12.4898
피폐	-12.4898
버림	-12.4898
직진	-12.4898
기숙사	-12.4898
잭슨	-12.4898
터키	-12.4898
타마키	-12.4898
▁23	-12.4898
교실	-12.4898
메이드	-12.4898
편집장	-12.4898
윤희	-12.4898
항우	-12.4898
화폐	-12.4899
취급	-12.4899
심각	-12.4899
최첨단	-12.4899
각종	-12.4899
때마침	-12.4899
가져온	-12.4899
심리학자	-12.4899
춘화	-12.4899
대륙	-12.4899
황위	-12.4899
직후	-12.4899
히데	-12.4899
범행	-12.49
정운	-12.49
삼각	-12.49
불태우	-12.49
패거리	-12.49
무료	-12.49
상징	-12.49
싱어	-12.4901
포터	-12.4901
파격	-12.4901
예티	-12.4901
조언	-12.4901
타이틀	-12.4901
넘어서	-12.4901
보체크	-12.4901
발굴	-12.4901
발걸음	-12.4901
미문	-12.4901
타운	-12.4901
숙적	-12.4901
추천	-12.4901
유대인	-12.4902
옥상	-12.4902
내려와	-12.4902
셋째	-12.4902
소울	-12.4902
리암	-12.4902
서커스단	-12.4902
선율	-12.4903
영민	-12.4903
오염	-12.4903
잠든	-12.4903
계곡	-12.4903
고아원	-12.4903
서른	-12.4903
웨인	-12.4903
채널	-12.4903
소방관	-12.4903
초토	-12.4903
아찔	-12.4903
소희	-12.4903
관문	-12.4903
아담스	-12.4903
패스	-12.4904
러시아군	-12.4904
빅터	-12.4904
바르	-12.4904
야욕	-12.4904
무조건	-12.4904
현상금	-12.4904
대부분	-12.4905
매니	-12.4905
연습생	-12.4905
낭아	-12.4905
환장	-12.4905
지하실	-12.4905
할로우	-12.4905
귀족	-12.4906
밀실	-12.4906
민정	-12.4906
비운	-12.4906
테드	-12.4906
매진	-12.4907
잔소리	-12.4907
영실	-12.4907
악귀	-12.4907
면접	-12.4907
수습	-12.4908
주택	-12.4908
증오	-12.4908
영재	-12.4908
물약	-12.4908
물결	-12.4909
캐시	-12.4909
플레이어	-12.491
초청	-12.4911
가사	-12.4911
언서	-12.4912
알베르트	-12.4912
사이드	-12.4912
유품	-12.4912
매번	-12.4913
미키	-12.4913
숨통	-12.4914
우타	-12.4914
신석	-12.4915
애정	-12.4915
터전	-12.4915
토리	-12.4916
항공기	-12.4916
밝힌	-12.4916
해웅	-12.4916
미요	-12.4917
피스	-12.4917
상상력	-12.4917
판정	-12.4917
빵집	-12.4917
팬데	-12.4918
어렸	-12.4918
제패	-12.4918
윤서	-12.4918
영채	-12.4918
느닷없이	-12.4919
부임	-12.4919
알람	-12.4919
달라도	-12.4919
판소리	-12.4919
처지	-12.492
완벽히	-12.492
소재	-12.492
작별	-12.4921
집필	-12.4921
타르	-12.4922
발발	-12.4922
상경	-12.4923
남수단	-12.4923
정작	-12.4924
예리	-12.4924
초호	-12.4925
수호자	-12.4925
난관	-12.4929
질서	-12.4929
해리스	-12.4929
조니	-12.4929
강박	-12.493
네요	-12.493
수혁	-12.493
힘입	-12.4932
새미	-12.4932
화장	-12.4933
신임	-12.4934
담아내	-12.4935
출가	-12.4936
세종	-12.4937
만능	-12.4937
개미	-12.4939
창대	-12.4939
취해	-12.4939
스카이	-12.494
소박	-12.4942
내려간	-12.4943
주희	-12.4944
판단	-12.4944
상공	-12.4945
청소년	-12.4947
카야	-12.4947
유빈	-12.4948
사친	-12.4948
싸인	-12.495
잠기	-12.495
로움	-12.4951
선상	-12.4953
린지	-12.4954
종일	-12.4956
당주	-12.4956
보이스	-12.4957
해답	-12.4958
집안일	-12.4959
무려	-12.4959
미남	-12.4961
남학생	-12.4961
도겸	-12.4966
▁클	-12.4966
공인	-12.4967
신작	-12.4967
유가족	-12.4968
유대	-12.4969
젠	-12.497
봐도	-12.497
실전	-12.4971
봄날	-12.4971
감사	-12.4972
스치	-12.4974
반면	-12.4977
대피	-12.4977
중독자	-12.4977
번호	-12.4978
미안	-12.4979
사유	-12.4982
아니면	-12.4983
명품	-12.4983
화제	-12.4985
제왕	-12.4986
번개	-12.4987
수현	-12.4989
실적	-12.4995
자영	-12.4996
주먹	-12.5001
일지	-12.5003
대모	-12.5004
수학자	-12.5004
약자	-12.5008
개시	-12.501
해결사	-12.5013
시온	-12.5014
주식	-12.5014
놓인다	-12.5016
안개	-12.5017
단편	-12.5028
상원	-12.5035
전대	-12.5036
▁반란	-12.5041
정치인	-12.5048
전함	-12.5051
이민	-12.5051
조직원	-12.5056
주문	-12.5056
아영	-12.5069
자극	-12.5069
정하	-12.5073
해요	-12.5086
탄로	-12.5089
회수	-12.5101
전개	-12.5102
로랑	-12.5117
킨	-12.5128
들어서	-12.5131
들르	-12.514
깊이	-12.5146
거두	-12.5148
마고	-12.5156
줍	-12.5157
이룰	-12.5163
기류	-12.517
도청	-12.5172
케	-12.5179
▁똑같	-12.518
다다르	-12.5182
인우	-12.5182
유인	-12.5185
팡	-12.5185
▁기차	-12.5186
▁고장	-12.5195
진만	-12.5198
리틀	-12.52
순이	-12.5202
도망	-12.5205
헬	-12.5206
기약	-12.5207
바오	-12.5208
고치	-12.521
로리	-12.5211
평행	-12.5211
암흑	-12.5212
덮친	-12.5214
소피	-12.5216
데이터	-12.5216
민족	-12.5216
완전	-12.5217
문화	-12.5217
여긴	-12.5217
캠	-12.5218
로버트	-12.5218
쿵	-12.5218
감염	-12.5219
수련	-12.5219
암호	-12.5219
당할	-12.5226
박스	-12.5227
실제	-12.5227
지연	-12.5231
산속	-12.5231
수녀	-12.5232
살상	-12.5234
유라	-12.5236
백수	-12.524
보라	-12.5241
대왕	-12.5241
자금	-12.5245
놓친	-12.5253
조수	-12.5253
창고	-12.5265
이뤄	-12.5268
프리	-12.5269
악기	-12.5271
병기	-12.5275
키운	-12.5282
IN	-12.5283
▁빵	-12.5289
la	-12.5289
고조	-12.5292
화산	-12.5293
해안	-12.53
관계자	-12.5303
의존	-12.5306
기구	-12.5317
미국인	-12.5321
도구	-12.5326
고프	-12.5339
중학교	-12.5344
내내	-12.5367
주시	-12.5367
기관	-12.5379
사전	-12.5379
▁조지	-12.5388
두리	-12.5396
물들	-12.5403
오전	-12.5404
아무로	-12.5412
지속	-12.5418
에바	-12.5423
▁바꾼	-12.5429
▁벌어진	-12.5429
▁빌려	-12.5433
불린	-12.5439
전원	-12.544
▁광	-12.5457
진도	-12.5478
태일	-12.5479
▁독	-12.5482
▁숨겨	-12.5485
▁메트	-12.55
려다	-12.5502
▁항	-12.5511
초기	-12.5515
▁핀	-12.5516
▁울려	-12.5517
▁테오	-12.5523
기준	-12.5529
아크	-12.5551
▁딱	-12.5556
▁환각	-12.5559
▁웨이	-12.5559
▁셋	-12.5565
▁일제	-12.5565
끈	-12.5567
편한	-12.5568
▁새벽	-12.5572
▁정복	-12.5574
▁소장	-12.5574
▁에디	-12.5578
▁은밀	-12.559
종이	-12.5591
▁부자	-12.5593
토이	-12.5593
▁근	-12.5595
▁오른	-12.5599
리지	-12.56
▁그려	-12.5604
에이미	-12.5605
내려	-12.5606
에린	-12.561
▁처리	-12.5611
대책	-12.5612
▁대중	-12.5617
▁기타	-12.5622
▁텐	-12.5623
▁캐	-12.5624
▁예언	-12.5628
▁제로	-12.5646
▁커	-12.5648
▁첫날	-12.5666
▁쓰레기	-12.5666
정아	-12.5674
기분	-12.5674
▁행	-12.5707
▁델	-12.5735
▁자라	-12.5753
세운	-12.5776
폭행	-12.5782
덧	-12.5789
고시	-12.5793
▁일급	-12.5797
롤	-12.5799
룸	-12.58
확실	-12.58
겉	-12.5803
유망	-12.5803
삽	-12.5803
소꿉	-12.5804
죄책	-12.5804
원숭이	-12.5804
끈질기	-12.5805
돌려주	-12.5805
엇갈리	-12.5805
겨누	-12.5805
늘어나	-12.5805
▁000	-12.5805
국립	-12.5805
VE	-12.5806
숨어들	-12.5806
통역	-12.5807
불러일으키	-12.5807
묻히	-12.5807
북송	-12.5808
전염	-12.5809
파고들	-12.5809
동반	-12.581
공무	-12.5811
보험	-12.5811
형태	-12.5812
포위	-12.5813
추위	-12.5815
드니	-12.5818
건드리	-12.5818
소외	-12.5821
바늘	-12.5822
자폐	-12.5823
상당	-12.5824
▁낸다	-12.5824
내몰리	-12.5826
장구	-12.5828
검거	-12.5837
자라나	-12.5846
동자	-12.5847
괴로워하	-12.5848
올라	-12.585
최면	-12.5852
시계	-12.5854
내놓	-12.5855
술사	-12.5872
지갑	-12.5878
조명	-12.5886
총사	-12.5894
20	-12.5901
의원	-12.5901
원주	-12.5903
▁전학	-12.5914
후반	-12.5916
카이	-12.5916
대국	-12.5917
될지	-12.5925
혁	-12.5926
입주	-12.5928
망하	-12.5932
거물	-12.5934
바리	-12.5935
회의	-12.5944
▁뚫	-12.5953
▁현	-12.5961
선천	-12.5983
우수	-12.5984
지르	-12.5986
▁강도	-12.5991
▁소방	-12.6021
▁그만	-12.6027
실의	-12.6028
번지	-12.6038
전면	-12.6052
▁맛	-12.6064
근대	-12.6086
거지	-12.6093
트리	-12.6093
궁	-12.6095
▁차이	-12.6097
성형	-12.6119
금의	-12.6122
웅	-12.6133
▁칠	-12.6147
효	-12.6156
에코	-12.6168
진아	-12.6181
▁핵	-12.6191
한번	-12.6192
험	-12.6197
밝	-12.6198
뼈	-12.62
폭주	-12.6203
발표	-12.6205
등반	-12.6205
천지	-12.6205
푸	-12.6205
호송	-12.6207
건설	-12.6209
사로잡힌	-12.6211
찾아간	-12.6211
경호	-12.6212
to	-12.6212
수장	-12.6212
감춘	-12.6212
독재	-12.6212
돌아와	-12.6214
뮤	-12.6215
민영	-12.6215
뭘	-12.6215
솔직	-12.6215
스러워	-12.6215
저항	-12.6216
드림	-12.6216
신호	-12.6217
불행	-12.6218
테스	-12.6218
불타	-12.6218
건지	-12.6219
교장	-12.622
디바	-12.622
저지른	-12.6222
로워	-12.6225
인턴	-12.6226
NA	-12.623
플로	-12.6231
지독	-12.6236
수십	-12.6237
야마	-12.6239
▁소피	-12.6241
라인	-12.6245
이른다	-12.6247
그건	-12.6251
철학	-12.6252
▁심리	-12.6253
고독	-12.6254
제시	-12.6256
수배	-12.6259
로즈	-12.6263
만화	-12.6265
한탕	-12.6266
치명	-12.6274
는다는	-12.6278
▁조종	-12.6299
태산	-12.6314
▁덮친	-12.6332
▁여긴	-12.6334
▁실제	-12.6342
해져	-12.6357
로코	-12.6361
루이	-12.6362
▁젠	-12.6365
▁암호	-12.6414
▁감염	-12.6423
▁캠	-12.6426
▁로버트	-12.6427
▁쿵	-12.6427
▁리틀	-12.6428
▁당할	-12.643
▁표현	-12.6434
▁유라	-12.6436
▁프리	-12.6445
▁백수	-12.6445
창작	-12.6453
▁이뤄	-12.6457
▁키운	-12.647
▁설득	-12.6485
▁스포츠	-12.6486
▁전략	-12.6489
▁옹	-12.6489
▁정착	-12.649
▁스무	-12.6493
▁제일	-12.6494
▁무사	-12.65
▁도우	-12.6518
보수	-12.6524
▁요리	-12.6526
▁승부	-12.6526
▁락	-12.6534
▁앉	-12.6548
p	-12.655
희준	-12.6569
기세	-12.657
▁항해	-12.6577
호성	-12.6578
▁공작	-12.6584
택	-12.6585
대기	-12.6585
▁제보	-12.6597
c	-12.6601
▁솔	-12.6607
▁흘러	-12.6614
이대로	-12.662
조이	-12.6627
ing	-12.663
▁발명	-12.6632
리카	-12.665
▁휩싸	-12.6683
석방	-12.6684
▁골	-12.6714
딩	-12.6717
어지	-12.6728
급히	-12.6738
변한	-12.6748
혀	-12.6752
괴로워	-12.6753
도로	-12.6764
염	-12.6766
우스	-12.6766
폭	-12.6769
끊임없	-12.677
니콜라	-12.6777
사과	-12.6778
우림	-12.6784
베르트	-12.6785
엄	-12.6788
꿀	-12.6789
▁연습	-12.6792
욱	-12.6792
흉	-12.6793
맞닥뜨린	-12.6795
담아낸	-12.6795
거듭난	-12.6795
움직인	-12.6796
낀	-12.6797
촉	-12.6797
싼	-12.6798
릉	-12.6799
들어온	-12.6799
노린	-12.6801
힐	-12.6801
한다면	-12.6801
럼	-12.6801
성적	-12.6802
덩	-12.6802
윗	-12.6803
노스케	-12.6803
가르쳐	-12.6803
응급	-12.6803
▁놀라	-12.6804
마니아	-12.6804
케미	-12.6804
톱	-12.6804
영희	-12.6804
어려워	-12.6804
굿	-12.6804
랗	-12.6804
라이언	-12.6804
쥬	-12.6804
캔	-12.6804
정략	-12.6804
엑스	-12.6805
루치아	-12.6805
두려울	-12.6805
새겨진	-12.6805
쟁탈전	-12.6805
칫	-12.6805
겁쟁이	-12.6805
탐탐	-12.6805
논스톱	-12.6805
고스란히	-12.6805
기다려온	-12.6805
되돌릴	-12.6805
디지몬	-12.6805
레베카	-12.6805
레슬링	-12.6805
로맨티스트	-12.6805
마드리드	-12.6805
막무가내	-12.6805
모딜리아니	-12.6805
모조리	-12.6805
무한궤도	-12.6805
바티칸	-12.6805
뱅가드	-12.6805
베네딕트	-12.6805
부에노스아이레스	-12.6805
불현듯	-12.6805
브래들리	-12.6805
브루노	-12.6805
브뤼셀	-12.6805
사무라이	-12.6805
스칼라	-12.6805
스탈링	-12.6805
스포트라이트	-12.6805
압구정	-12.6805
애슐리	-12.6805
엑스칼리버	-12.6805
오합지졸	-12.6805
우당탕탕	-12.6805
저널리스트	-12.6805
저질렀	-12.6805
집어삼킬	-12.6805
캐스팅	-12.6805
캡슐	-12.6805
컴버배치	-12.6805
코끼리	-12.6805
쿠데타	-12.6805
킬로미터	-12.6805
터미네이터	-12.6805
테레사	-12.6805
파라다이스	-12.6805
페라리	-12.6805
포레스트	-12.6805
프렌치	-12.6805
핀란드	-12.6805
햄버거	-12.6805
홀연히	-12.6805
가르침	-12.6805
개구리	-12.6805
디지털	-12.6805
망망대해	-12.6805
야쿠자	-12.6805
청천벽력	-12.6805
카를로스	-12.6805
플로리다	-12.6805
필리핀	-12.6805
허덕이	-12.6805
공략	-12.6805
그레타	-12.6805
끌어들이	-12.6805
넬슨	-12.6805
들려준다	-12.6805
앨런	-12.6805
오사카	-12.6805
오토바이	-12.6805
온전히	-12.6805
조여오	-12.6805
뽀짝	-12.6805
기꺼이	-12.6805
기다렸	-12.6805
다이스케	-12.6805
떨어졌	-12.6805
럭키	-12.6805
물러설	-12.6805
안식처	-12.6805
여의봉	-12.6805
호랑이	-12.6805
무지개	-12.6805
웨슬리	-12.6805
침투	-12.6805
평균	-12.6805
극악무도	-12.6805
묻어두	-12.6805
테마파크	-12.6805
떠올린다	-12.6805
불청객	-12.6805
판도라	-12.6805
힐링	-12.6805
녹색	-12.6805
눌러	-12.6805
래빗	-12.6805
블레이즈	-12.6805
빠뜨린	-12.6805
쓰러져	-12.6805
양육권	-12.6805
인공지능	-12.6805
다녀오	-12.6805
박람회	-12.6805
승현	-12.6805
동갑내기	-12.6805
살아왔	-12.6805
가져오	-12.6805
불쑥	-12.6805
엘리엇	-12.6805
케이블카	-12.6805
걸어온	-12.6805
샤이닝	-12.6805
후유증	-12.6805
퍼져	-12.6805
불가사의	-12.6805
외곽	-12.6805
넬리	-12.6805
모텔	-12.6805
원자력	-12.6805
황폐	-12.6805
다락방	-12.6805
찾아왔	-12.6805
케이디	-12.6805
흉터	-12.6805
걸어오	-12.6805
파이터	-12.6805
교황	-12.6805
제니퍼	-12.6805
굴복	-12.6805
자존심	-12.6805
택배	-12.6805
▁VI	-12.6805
미용실	-12.6805
머리카락	-12.6805
구름	-12.6805
당나귀	-12.6805
겨우	-12.6805
몽키	-12.6805
카세트	-12.6805
나눈다	-12.6805
실습	-12.6805
학규	-12.6805
스미레	-12.6805
출몰	-12.6805
에이전시	-12.6805
확보	-12.6805
헤어짐	-12.6805
이중생활	-12.6805
종업원	-12.6805
광휘	-12.6805
색깔	-12.6805
어부바	-12.6805
유토피아	-12.6805
세탁소	-12.6805
추궁	-12.6805
실비아	-12.6805
폭스	-12.6805
합동	-12.6805
묻혀	-12.6806
합창단	-12.6806
번번이	-12.6806
도무지	-12.6806
뭘까	-12.6806
초상화	-12.6806
메이데이	-12.6806
이라크	-12.6806
도망친	-12.6806
대사관	-12.6806
퇴사	-12.6806
관료	-12.6806
태어날	-12.6806
홀랜드	-12.6806
누워	-12.6806
배워	-12.6806
블랙우드	-12.6806
울림	-12.6806
줄어들	-12.6806
폐업	-12.6806
달라진	-12.6806
케빈	-12.6806
냉전	-12.6806
잠겨	-12.6806
아키라	-12.6806
관광	-12.6806
마르타	-12.6806
유니버스	-12.6806
패닉	-12.6806
탐내	-12.6806
국정원	-12.6806
현직	-12.6806
요양원	-12.6806
레슨	-12.6806
캠프	-12.6807
숙소	-12.6807
누굴	-12.6807
불량	-12.6807
뮤즈	-12.6807
린저	-12.6807
코미디언	-12.6807
포털	-12.6807
숨겨왔	-12.6807
영훈	-12.6807
발자국	-12.6807
트림	-12.6807
철령	-12.6807
매복	-12.6807
숙제	-12.6807
빨려	-12.6807
루이즈	-12.6807
택일	-12.6807
미궁	-12.6807
어쩌면	-12.6808
출간	-12.6808
씨앗	-12.6808
마리옹	-12.6808
팔황	-12.6808
아만다	-12.6808
유망주	-12.6808
재료	-12.6808
영향력	-12.6808
하이바라	-12.6808
결승전	-12.6808
다이어리	-12.6808
방문객	-12.6808
출판사	-12.6808
유능	-12.6808
팔찌	-12.6808
나르다	-12.6808
싸늘	-12.6808
안토니	-12.6808
맡겨진다	-12.6808
슈야	-12.6808
기차역	-12.6808
피겨	-12.6808
실현	-12.6809
베프	-12.6809
잠긴	-12.6809
반환	-12.6809
북유럽	-12.6809
지하철	-12.6809
증상	-12.6809
유독	-12.6809
교관	-12.6809
육체	-12.6809
앤디	-12.6809
코트	-12.6809
절교	-12.6809
순록	-12.6809
평정	-12.681
저항군	-12.681
발자취	-12.681
타에코	-12.681
정거장	-12.681
처치	-12.681
정령	-12.681
발령	-12.681
소문난	-12.681
나나세	-12.681
교차	-12.681
도우미	-12.681
강현	-12.681
잖아요	-12.681
조이스	-12.681
잊히	-12.6811
격돌	-12.6811
핵심	-12.6811
부동산	-12.6811
경신	-12.6811
총동원	-12.6811
매우	-12.6811
예민	-12.6811
괴력	-12.6811
발전소	-12.6811
각국	-12.6812
정답	-12.6812
윌리스	-12.6812
코먼	-12.6812
추구	-12.6812
토모	-12.6812
맞설	-12.6812
천봉	-12.6812
떠오른다	-12.6812
배송	-12.6812
보듬	-12.6812
초래	-12.6813
우키	-12.6813
넘긴	-12.6813
알려준다	-12.6813
호령	-12.6813
쿠스	-12.6813
청소부	-12.6813
방패	-12.6813
유키	-12.6813
불운	-12.6814
절반	-12.6814
무법	-12.6814
요코	-12.6814
머무	-12.6814
드론	-12.6814
노동자	-12.6814
유노	-12.6814
강철	-12.6814
철저	-12.6815
적힌	-12.6815
복무	-12.6815
설정	-12.6815
남겨	-12.6815
계급	-12.6815
절실	-12.6815
루스	-12.6815
산골	-12.6815
잠자리	-12.6815
수술비	-12.6815
모임	-12.6816
발매	-12.6816
여수	-12.6816
창문	-12.6816
입증	-12.6817
승선	-12.6817
쿠바	-12.6817
사항	-12.6818
날아가	-12.6818
소중히	-12.6818
일급비밀	-12.6818
유령선	-12.6818
지켜줄	-12.6819
원망	-12.6819
할까요	-12.6819
강도단	-12.6819
블리	-12.6819
달린	-12.682
버드	-12.682
스톰	-12.682
서래	-12.682
커다	-12.682
몰두	-12.682
쌓여	-12.6821
먼데	-12.6821
생물체	-12.6821
격투기	-12.6821
서처	-12.6821
특수부대	-12.6822
박물	-12.6822
신참	-12.6822
연달	-12.6822
호시	-12.6822
서복	-12.6822
학생회	-12.6822
키요	-12.6823
꾸려	-12.6823
관차	-12.6823
복서	-12.6824
물질	-12.6824
다가간다	-12.6824
선영	-12.6824
배회	-12.6824
파문	-12.6825
빌미	-12.6825
간절	-12.6826
전환	-12.6826
조우	-12.6826
마석	-12.6826
병동	-12.6827
바바라	-12.6827
규명	-12.6827
라곤	-12.6827
초연	-12.6828
브라	-12.6828
밤낮	-12.6829
깨달	-12.6829
주둔	-12.6829
서류	-12.6829
문파	-12.683
데려	-12.6831
진술	-12.6831
거석	-12.6831
미유	-12.6832
걸친	-12.6832
디스	-12.6833
밀서	-12.6833
반항아	-12.6833
배정	-12.6835
조조	-12.6835
차오르	-12.6836
항일	-12.6836
금세	-12.6836
부강	-12.6836
여권	-12.6836
아벨	-12.6837
홍보	-12.6838
명탐정	-12.6838
난무	-12.6838
조공	-12.6839
선유	-12.684
증인	-12.684
필두	-12.6842
당장	-12.6842
이삭	-12.6843
태백	-12.6843
대지진	-12.6843
부재	-12.6843
샤오	-12.6844
목장	-12.6844
모세	-12.6844
등극	-12.6844
반발	-12.6844
예원	-12.6844
눈빛	-12.6844
코스	-12.6845
다가온다	-12.6846
모시	-12.6848
밀라	-12.6849
해졌	-12.6849
마트	-12.685
끝난다	-12.6851
가까이	-12.6852
희대	-12.6852
치료제	-12.6852
모면	-12.6853
참전	-12.6854
개방	-12.6854
올려	-12.6855
28	-12.6855
사이트	-12.6855
다큐	-12.6856
폭발물	-12.6856
지혁	-12.6856
군부	-12.6857
싸운다	-12.6858
작동	-12.6858
두현	-12.6858
연구원	-12.6859
▁o	-12.686
시터	-12.6861
알리스	-12.6861
기막힌	-12.6861
길고양이	-12.6863
시력	-12.6863
레오	-12.6864
여연	-12.6866
건우	-12.6866
오키	-12.6868
식인	-12.6868
파장	-12.6868
빌라	-12.6869
킨지	-12.6869
지켜라	-12.687
구해라	-12.6872
정보원	-12.6873
자처	-12.6875
시조	-12.6875
연일	-12.6876
기숙	-12.6876
학기	-12.6877
사별	-12.6877
아머	-12.6878
꾸며	-12.6879
도끼	-12.6879
마음먹	-12.688
입단	-12.6882
시공	-12.6882
두려워하	-12.6883
보병	-12.6883
여유	-12.6884
뜬다	-12.6885
신발	-12.6887
달나라	-12.6889
주술	-12.689
갈라	-12.6891
지워	-12.6892
섬세	-12.6893
내쫓	-12.6894
테러단	-12.6894
성희	-12.6896
인근	-12.6897
찍힌	-12.6899
아드리	-12.6899
불신	-12.69
메이지	-12.6902
나왔	-12.6903
코치	-12.6903
에펠	-12.6905
자국	-12.6906
▁궁	-12.6906
고려	-12.6906
보유	-12.6906
생일날	-12.6906
길러	-12.6908
들뜬	-12.6909
기능	-12.6909
구두	-12.691
바꾼다	-12.6913
카일	-12.6915
영주	-12.6915
성철	-12.6916
피치	-12.6917
인가요	-12.6919
▁I	-12.6921
전용	-12.6921
희수	-12.6923
남작	-12.6925
담시	-12.6926
산불	-12.6928
동지	-12.6932
제갈	-12.6937
사방	-12.6938
화면	-12.6938
업체	-12.6941
재주	-12.6945
단다	-12.6945
보조	-12.6946
괴수	-12.6946
창수	-12.6953
중계	-12.6955
오나라	-12.6956
공연장	-12.6956
때리	-12.6956
월세	-12.6959
후미	-12.696
괴도	-12.6961
해병	-12.6965
다운	-12.6966
쓴다	-12.6969
재일	-12.697
막아내	-12.6971
유해	-12.6974
에리카	-12.6978
일우	-12.6979
강해	-12.6979
마주친다	-12.698
입사	-12.6981
est	-12.6987
▁암	-12.6991
비서	-12.6994
의혹	-12.6994
아르	-12.6995
이룬	-12.7002
일반	-12.7004
아론	-12.7007
소년원	-12.7012
함대	-12.7014
성배	-12.7015
육아	-12.7017
서명	-12.7018
언어	-12.7019
광고	-12.7027
선전	-12.7028
폐	-12.7034
기르	-12.7035
알란	-12.7036
전공	-12.704
이본	-12.7045
유로	-12.7045
반해	-12.7046
수경	-12.7046
원치	-12.7048
성준	-12.7052
대박	-12.7053
대선	-12.7053
달려온	-12.7074
경이	-12.7075
고뇌	-12.708
마라	-12.708
중위	-12.708
밤중	-12.7099
기행	-12.7101
이어진	-12.7103
실시간	-12.711
아트	-12.7111
케이	-12.7116
이즈	-12.7116
일정	-12.7117
한층	-12.7134
영국인	-12.7147
저기	-12.7151
수트	-12.7155
세계관	-12.7156
장주	-12.7164
고전	-12.7165
태리	-12.7166
피자	-12.717
움	-12.7171
▁제주	-12.7175
에서부터	-12.7177
시속	-12.7182
별로	-12.7193
성화	-12.7196
손주	-12.7197
뜬	-12.7197
발신	-12.7198
사수	-12.72
바나	-12.7204
된다는	-12.7205
인조	-12.7206
보상	-12.7213
전신	-12.7217
자타	-12.7223
▁뒤흔들	-12.7232
자신감	-12.7234
▁천만	-12.7234
차오	-12.7235
기영	-12.7246
났	-12.7246
?	-12.7254
가설	-12.7255
신주	-12.7262
벨	-12.727
레인	-12.727
다친	-12.7281
행사	-12.7287
일어난	-12.7295
통한	-12.7296
▁놀이	-12.7299
주로	-12.7301
능력자	-12.7304
몰려	-12.7305
헤	-12.7306
맷	-12.731
자상	-12.7313
코코	-12.7314
토미	-12.7314
비해	-12.7315
포커	-12.7318
빼앗긴	-12.7319
당당	-12.7319
우울	-12.7319
틱	-12.7322
멈춰	-12.7322
이자벨	-12.7322
미소	-12.7322
넷	-12.7322
좁혀	-12.7323
펜	-12.7323
미스터	-12.7323
크리스	-12.7323
알아본	-12.7324
채워	-12.7324
샤크	-12.7325
베스	-12.7325
미니	-12.7325
편하	-12.7326
애니	-12.7327
낙인	-12.7327
아군	-12.7327
극비	-12.7329
뭔가	-12.7331
마땅	-12.7331
단순	-12.7331
야구	-12.7334
오토	-12.7335
보통	-12.7337
▁사로잡힌	-12.7339
수공	-12.7339
▁감춘	-12.734
만족	-12.7341
차려	-12.7341
▁찾아간	-12.7344
전성	-12.7345
수백	-12.7348
냐고	-12.7351
해방	-12.7363
세리	-12.7366
산책	-12.7366
육지	-12.7369
선산	-12.7375
이겨	-12.738
▁려다	-12.7388
▁돌아와	-12.74
죽일	-12.7401
▁웅	-12.7409
전시	-12.7413
모모	-12.7414
▁저항	-12.7426
▁뮤	-12.7427
▁솔직	-12.7427
▁스러워	-12.7428
▁불행	-12.7429
▁플로	-12.7429
▁뭘	-12.7429
▁테스	-12.743
▁드림	-12.7431
▁민영	-12.7431
연주가	-12.7433
▁디바	-12.7433
▁저지른	-12.7434
저지	-12.7435
▁지독	-12.7437
▁로워	-12.744
▁혁	-12.7441
산타	-12.7443
▁수십	-12.7444
▁변한	-12.7453
▁제시	-12.7453
▁폭풍	-12.7457
it	-12.7461
▁이른다	-12.7462
▁고독	-12.7468
▁폭격	-12.7469
▁로즈	-12.7475
▁가상	-12.7488
▁수련	-12.749
남해	-12.7493
▁완전	-12.7495
▁수녀	-12.7497
▁데이터	-12.7499
▁박스	-12.7499
▁민족	-12.75
에버	-12.7502
영화사	-12.7515
▁악기	-12.7529
▁거짓	-12.7533
향	-12.7536
주말	-12.7536
고유	-12.7549
▁랜	-12.755
한철	-12.7555
▁유학	-12.7556
▁질투	-12.7563
가스	-12.7568
▁무당	-12.757
▁으니	-12.757
분단	-12.7577
▁군사	-12.7578
▁통신	-12.7583
▁침입	-12.7584
내전	-12.7596
고발	-12.7604
채운	-12.7605
도니	-12.7615
마도	-12.7627
▁자비	-12.7633
▁캠핑	-12.7635
괴이	-12.7637
▁닫	-12.7638
▁도로	-12.765
어린이	-12.7657
타인	-12.7658
닝	-12.7659
▁사형	-12.766
▁탕	-12.7668
분명	-12.7685
수집	-12.77
▁짱	-12.7701
▁로스	-12.7714
이철수	-12.7714
▁자원	-12.7718
▁수영	-12.7718
도적	-12.7725
을수록	-12.7731
도달	-12.7738
리아	-12.7742
구슬	-12.7746
분야	-12.7758
던진	-12.7798
▁웬	-12.7807
▁겁	-12.782
▁뇌	-12.7823
가치	-12.7825
어스	-12.7827
탐	-12.7849
련	-12.7862
성인	-12.7863
▁옥	-12.7867
으	-12.7885
at	-12.7902
멋	-12.7906
사춘	-12.7911
OP	-12.7913
세탁	-12.7913
게릴라	-12.7913
머릿	-12.7914
고마워	-12.7914
썩	-12.7915
아카데미	-12.7915
컴	-12.7916
케이블	-12.7916
스턴트	-12.7916
캔자스	-12.7916
망설이	-12.7916
날카롭	-12.7916
퍼붓	-12.7916
풀어내	-12.7916
가로지르	-12.7916
동맹	-12.7916
싹트	-12.7916
날아오	-12.7917
서투르	-12.7917
정규	-12.7917
버려	-12.7917
친척	-12.7917
부분	-12.7918
뒤집히	-12.7918
메탈	-12.7919
엔딩	-12.7919
체류	-12.7919
심령	-12.7919
유언	-12.7919
공통	-12.792
▁34	-12.792
벽력	-12.7921
휴양	-12.7922
베풀	-12.7922
결단	-12.7923
잠재	-12.7923
반역	-12.7924
경비	-12.7925
돌파	-12.7928
모함	-12.7931
요일	-12.7932
진동	-12.7933
▁선발	-12.7938
세포	-12.7939
가입	-12.7939
미터	-12.7942
번역	-12.7944
해치	-12.795
명절	-12.7954
무력	-12.7955
두드리	-12.7956
사법	-12.7961
밝혀내	-12.7963
피부	-12.7969
서식	-12.797
빠져나가	-12.7975
타다	-12.7976
다가서	-12.798
통일	-12.7991
제인	-12.7991
▁지망	-12.7995
걸치	-12.8002
리키	-12.8013
▁틀	-12.8015
실리	-12.8025
강가	-12.8035
상부	-12.8042
부리	-12.8055
전파	-12.8058
라니	-12.8059
코라	-12.8061
해온	-12.8092
어부	-12.8119
▁케	-12.8122
▁고시	-12.8124
오두	-12.8126
이영	-12.8139
▁갱	-12.8141
▁층	-12.8145
먼지	-12.8151
루오	-12.8157
▁메이	-12.8168
열대	-12.8173
한적	-12.8181
PE	-12.8189
▁미술	-12.8201
입성	-12.8202
ee	-12.8214
되살리	-12.8225
▁폐	-12.8228
완	-12.8229
룬	-12.8248
▁400	-12.8262
장사	-12.828
▁돌연	-12.8286
▁후반	-12.8288
여행지	-12.8293
▁코코	-12.8308
NNBC	-12.8372
가르	-12.8403
ia	-12.8411
▁몰려	-12.8418
지주	-12.842
줄기	-12.8423
주간	-12.8446
▁빼앗긴	-12.8454
▁뜬	-12.8465
선한	-12.8466
▁헤	-12.8482
잉	-12.8485
▁평	-12.8507
▁일어난	-12.8518
▁과학	-12.8518
▁멈춰	-12.852
기소	-12.8522
▁이자벨	-12.8527
▁미소	-12.853
▁수백	-12.8532
▁크리스	-12.8534
▁미스터	-12.8534
ck	-12.8535
▁채워	-12.8536
의학	-12.8538
▁넷	-12.8538
맑	-12.854
▁뭔가	-12.8542
▁좁혀	-12.8542
▁베스	-12.8543
▁토미	-12.8544
▁산타	-12.8545
▁펜	-12.8545
▁낙인	-12.8546
▁틱	-12.8546
랭	-12.8546
▁애니	-12.8547
▁알아본	-12.8547
▁단순	-12.8547
▁마땅	-12.8547
▁샤크	-12.8547
거침없	-12.8548
▁오토	-12.8548
가해	-12.855
▁미니	-12.855
▁차려	-12.8551
몰린	-12.8553
덜	-12.8562
레코드	-12.8562
벅	-12.8562
사운드	-12.8562
▁레인	-12.8562
마침	-12.8563
기다린	-12.8564
걸려온	-12.8565
▁이겨	-12.8566
멍	-12.8566
융	-12.8567
소용돌이	-12.8567
뻔	-12.8568
뽑	-12.8568
마스크	-12.8568
볼까	-12.8569
애써	-12.8569
선우	-12.8569
도망쳐	-12.8569
바친	-12.8569
자부	-12.857
발레	-12.857
노트	-12.857
롤라	-12.857
다름	-12.8571
윌리	-12.8572
수익	-12.8572
엔터	-12.8572
▁모모	-12.8572
여우	-12.8573
코너	-12.8574
루비	-12.8574
떠날	-12.8574
루시	-12.8575
할까	-12.8575
베일	-12.8577
▁세리	-12.8578
되살아난	-12.8581
이난	-12.8582
제니	-12.8582
▁육지	-12.8583
▁헬	-12.8589
로렌	-12.8592
▁올리	-12.8593
▁NA	-12.8597
▁저지	-12.86
부고	-12.8601
하트	-12.8602
만두	-12.8607
신선	-12.861
대작	-12.8612
온기	-12.8613
나올	-12.8614
▁교장	-12.8617
▁경호	-12.8617
▁푸	-12.8618
▁험	-12.8622
태인	-12.8622
▁독재	-12.8624
▁인턴	-12.8633
나타	-12.8639
▁치명	-12.8645
수천	-12.8645
il	-12.8651
자주	-12.8665
▁한탕	-12.8679
▁홀	-12.868
▁색	-12.8684
▁문화	-12.8685
▁평행	-12.8693
▁암흑	-12.8701
▁자금	-12.872
공기	-12.872
▁에버	-12.8724
베이	-12.8724
에르	-12.8727
▁욕	-12.8765
아동	-12.8766
▁죄	-12.8781
요한	-12.8786
▁70	-12.8813
생산	-12.8832
호위	-12.8846
▁상실	-12.8858
▁청소	-12.8863
▁야생	-12.8876
▁썸	-12.8925
▁영향	-12.8934
끄	-12.8944
정우	-12.8953
HA	-12.8977
리치	-12.898
루카	-12.8982
보도	-12.8996
잡이	-12.9001
▁훈	-12.9006
EO	-12.9021
해수	-12.9036
득	-12.9042
울린	-12.9048
까요	-12.9085
▁휩싸인	-12.9092
컨	-12.9096
막힌	-12.9098
동성	-12.9101
래퍼	-12.9101
킬	-12.911
맥	-12.9112
▁수술	-12.9114
롱	-12.912
응	-12.9121
렁	-12.9122
그리워	-12.9123
해내	-12.9127
앙	-12.9129
느닷없	-12.9131
슬리	-12.9136
낭	-12.9141
렉스	-12.9145
느리	-12.9147
롯	-12.9149
프레드	-12.915
무언	-12.9152
즐	-12.9154
챈	-12.9155
딛	-12.9155
부장	-12.9155
붓	-12.9156
뒤바뀐	-12.9157
떠오른	-12.9157
소행	-12.9157
닥	-12.9161
결사	-12.9161
엎	-12.9161
뿔	-12.9161
셸	-12.9162
포식	-12.9163
동업	-12.9163
셰	-12.9164
모토	-12.9164
산드라	-12.9164
촛	-12.9165
슈즈	-12.9165
곽	-12.9166
거듭날	-12.9166
헤쳐	-12.9166
남겨져	-12.9166
어떨까	-12.9166
누군지	-12.9166
가까웠	-12.9166
데이빗	-12.9166
메조소프라노	-12.9166
시끄럽	-12.9166
즐긴다	-12.9166
각양각색	-12.9166
꼭두각시	-12.9166
남겨둔	-12.9166
속수무책	-12.9166
국회의원	-12.9166
아비규환	-12.9166
은신처	-12.9166
드립니다	-12.9166
냉정	-12.9166
차가운	-12.9166
▁훔친	-12.9166
감쪽같이	-12.9166
곽도원	-12.9166
광저우	-12.9166
근근이	-12.9166
글래스	-12.9166
까투리	-12.9166
꺼병이	-12.9166
노르망디	-12.9166
다짜고짜	-12.9166
더러운	-12.9166
두근거림	-12.9166
라스칼	-12.9166
레너드	-12.9166
레오나르도	-12.9166
로큰롤	-12.9166
뤼	-12.9166
리골레토	-12.9166
리조트	-12.9166
립스틱	-12.9166
마젤란	-12.9166
매거진	-12.9166
매디슨	-12.9166
매버릭	-12.9166
모비우스	-12.9166
무참히	-12.9166
미사키	-12.9166
미켈란젤로	-12.9166
바이올리니스트	-12.9166
벨파스트	-12.9166
복숭아	-12.9166
브래드	-12.9166
브리트니	-12.9166
비주얼	-12.9166
설경구	-12.9166
스카우트	-12.9166
스코틀랜드	-12.9166
스테파니	-12.9166
스펜서	-12.9166
스피디	-12.9166
싱가포르	-12.9166
아키히코	-12.9166
안드레이	-12.9166
안중근	-12.9166
알츠하이머	-12.9166
앙투안	-12.9166
앤더슨	-12.9166
앤서니	-12.9166
어마어마	-12.9166
어웨이크	-12.9166
에메랄드	-12.9166
에이프릴	-12.9166
우르르	-12.9166
위충현	-12.9166
유연석	-12.9166
이슬람	-12.9166
자이언츠	-12.9166
저스티스	-12.9166
제르맹	-12.9166
쥬라기	-12.9166
카세트테이프	-12.9166
캘린더	-12.9166
크레용	-12.9166
크리에이터	-12.9166
키쿠코	-12.9166
태상노군	-12.9166
테슬라	-12.9166
토너먼트	-12.9166
토네이도	-12.9166
트러블	-12.9166
트레이너	-12.9166
파키스탄	-12.9166
퍼펙트	-12.9166
페루치오	-12.9166
폴란드	-12.9166
프란체스코	-12.9166
프랑코	-12.9166
프랜시스	-12.9166
프랭키	-12.9166
피노키오	-12.9166
필하모닉	-12.9166
햄프턴	-12.9166
허리케인	-12.9166
헬레나	-12.9166
후아레즈	-12.9166
히로부미	-12.9166
샬롯	-12.9166
실버타운	-12.9166
안젤로	-12.9166
억만장자	-12.9166
웨스트엔드	-12.9166
펠리컨	-12.9166
▁the	-12.9166
귀사리	-12.9166
바리톤	-12.9166
사이코패스	-12.9166
시시각각	-12.9166
아세파	-12.9166
어김없이	-12.9166
줄리안	-12.9166
지새우	-12.9166
하카루	-12.9166
햄스터	-12.9166
조나단	-12.9166
필리베르	-12.9166
나머지	-12.9166
딜런	-12.9166
리디아	-12.9166
베르테르	-12.9166
응징	-12.9166
컨트리	-12.9166
흉흉	-12.9166
힘겨운	-12.9166
나탈리	-12.9166
라이터	-12.9166
마인드	-12.9166
색슨족	-12.9166
퇴근	-12.9166
룸메이트	-12.9166
발렌타인데이	-12.9166
찾아갑니다	-12.9166
미사일	-12.9166
살로메	-12.9166
상류층	-12.9166
일용직	-12.9166
투숙객	-12.9166
램프	-12.9166
멘탈	-12.9166
브리튼	-12.9166
스케줄	-12.9166
알아차리	-12.9166
일으켜	-12.9166
처참	-12.9166
프레드릭	-12.9166
함부로	-12.9166
흔들린다	-12.9166
멈춘	-12.9166
카오루	-12.9166
환희	-12.9166
교향곡	-12.9166
기독교	-12.9166
넘어선	-12.9166
떨쳤	-12.9166
삐딱	-12.9166
관광객	-12.9166
부서지	-12.9166
동자승	-12.9166
갈림	-12.9166
깨어났	-12.9166
뒤엉키	-12.9166
미즈키	-12.9166
셀프	-12.9166
출항	-12.9166
퇴임	-12.9166
풋풋	-12.9166
황정민	-12.9166
보금자리	-12.9166
노송동	-12.9166
하모니	-12.9166
마르틴	-12.9166
유태오	-12.9166
이순신	-12.9166
티콘	-12.9166
프리즘	-12.9166
벨기에	-12.9166
불치병	-12.9166
숨바꼭질	-12.9166
섭외	-12.9166
접어들	-12.9166
다스리	-12.9166
트레버	-12.9166
ING	-12.9166
미즈호	-12.9166
지니어스	-12.9166
튼튼	-12.9166
갈라놓	-12.9166
루비콘	-12.9166
메구미	-12.9166
위시본	-12.9166
쫓아오	-12.9166
숙취	-12.9166
하비에르	-12.9166
용납	-12.9166
피어나	-12.9166
황급히	-12.9166
냉동	-12.9166
박정민	-12.9166
사이보그	-12.9166
현혹	-12.9166
유일무이	-12.9166
게리온	-12.9166
휴게소	-12.9166
거스른	-12.9166
변사체	-12.9166
데이먼	-12.9166
철저히	-12.9166
출입	-12.9166
피카소	-12.9166
클레이드	-12.9166
경시청	-12.9166
천우희	-12.9166
보험금	-12.9166
시추선	-12.9166
체육	-12.9166
추축	-12.9166
였음을	-12.9166
블레이크	-12.9166
께서	-12.9166
▁MI	-12.9166
요즘	-12.9166
제이제이	-12.9166
주유소	-12.9166
다리우스	-12.9166
승무원	-12.9166
천하제일	-12.9166
아수라장	-12.9166
여대생	-12.9166
초등학생	-12.9167
취향	-12.9167
엘피	-12.9167
스틸	-12.9167
엄니	-12.9167
고고학자	-12.9167
아가씨	-12.9167
워터	-12.9167
가까워질수록	-12.9167
풍식	-12.9167
찾아나서	-12.9167
썸머	-12.9167
뒤흔드	-12.9167
향상	-12.9167
협정	-12.9167
마르코	-12.9167
브라스	-12.9167
숙식	-12.9167
숨겨둔	-12.9167
홀릭	-12.9167
메이슨	-12.9167
즉시	-12.9167
히사시	-12.9167
플랜	-12.9167
날아온	-12.9167
링커	-12.9167
색출	-12.9167
이겨낼	-12.9167
옥토퍼스	-12.9167
킴스	-12.9167
기울이	-12.9167
싸워야	-12.9167
각색	-12.9167
춘희	-12.9167
뱃속	-12.9167
손꼽	-12.9167
비상사태	-12.9167
트롯	-12.9167
응시	-12.9167
뇌락	-12.9167
청평사	-12.9167
빼돌리	-12.9167
학업	-12.9167
플래시	-12.9167
거북선	-12.9167
방어선	-12.9167
골탕	-12.9167
끊어진	-12.9167
빅토르	-12.9167
자연재해	-12.9167
스마트	-12.9167
프리먼	-12.9167
투옥	-12.9167
염원	-12.9168
윤시내	-12.9168
승률	-12.9168
가가린	-12.9168
제이티	-12.9168
연맹	-12.9168
빼앗겨	-12.9168
카미유	-12.9168
카밀라	-12.9168
불쾌	-12.9168
주고받	-12.9168
철부지	-12.9168
종합	-12.9168
학창	-12.9168
획기	-12.9168
클레이	-12.9168
외할아버지	-12.9168
니버스	-12.9168
교외	-12.9168
베이브	-12.9168
화장품	-12.9168
쳐들어가	-12.9168
쫓아가	-12.9168
현석	-12.9168
공찬	-12.9168
무용단	-12.9168
탈탈	-12.9168
카멜	-12.9168
재소자	-12.9168
조력자	-12.9168
레이블	-12.9168
삼총사	-12.9168
룰루	-12.9168
리듬	-12.9168
여기저기	-12.9169
애니멀	-12.9169
복직	-12.9169
출마	-12.9169
공동체	-12.9169
살려야	-12.9169
잊혀	-12.9169
송나라	-12.9169
빌보드	-12.9169
보름날	-12.9169
순찰	-12.9169
하이킹	-12.9169
출세	-12.9169
보병대	-12.9169
제멋대로	-12.9169
핵무기	-12.9169
당당히	-12.9169
걸렸	-12.9169
변장	-12.9169
해병대	-12.9169
갖춘	-12.9169
화산섬	-12.9169
터진다	-12.9169
춤추	-12.9169
구찌	-12.9169
유전자	-12.9169
목각	-12.9169
조우진	-12.9169
독창	-12.9169
발탁	-12.9169
스케일	-12.9169
감출	-12.9169
패션계	-12.9169
독점	-12.9169
르망	-12.9169
들어선	-12.9169
증발	-12.9169
마키노	-12.9169
후타로	-12.917
달렸	-12.917
일으킨다	-12.917
잠복	-12.917
최상위	-12.917
십자	-12.917
칸토	-12.917
광경	-12.917
간섭	-12.917
최전선	-12.917
떠보	-12.917
키스톤	-12.917
창희	-12.917
강점기	-12.917
주름	-12.917
골든	-12.917
커버	-12.917
금괴	-12.917
목포	-12.917
미술품	-12.9171
저수지	-12.9171
엔젤	-12.9171
짜리	-12.9171
재윤	-12.9171
재단사	-12.9171
총격전	-12.9171
청나라	-12.9171
트레인	-12.9171
조합	-12.9171
가정폭력	-12.9171
효정	-12.9171
록키	-12.9171
핑키	-12.9171
윤철	-12.9171
항구	-12.9171
회색	-12.9171
뒤틀린	-12.9171
변사	-12.9171
짝없이	-12.9171
구현	-12.9172
검객	-12.9172
반역자	-12.9172
봐요	-12.9172
카츠	-12.9172
복역	-12.9172
경감	-12.9172
망했	-12.9172
태양계	-12.9172
베티	-12.9172
간병인	-12.9172
지켜볼	-12.9172
제라드	-12.9172
호평	-12.9172
신문사	-12.9172
종결	-12.9172
놀란	-12.9172
예프	-12.9172
무법자	-12.9172
장영실	-12.9172
지원금	-12.9173
올린	-12.9173
표시	-12.9173
드러낸다	-12.9173
지킨다	-12.9173
맡긴다	-12.9173
다가갈수록	-12.9173
바른	-12.9173
더럽	-12.9173
에이든	-12.9173
희귀	-12.9173
꾸민	-12.9173
대량	-12.9173
상실감	-12.9173
강윤	-12.9173
통영	-12.9173
루이스	-12.9173
화합	-12.9173
원탁	-12.9173
발각	-12.9174
붙여	-12.9174
제미니	-12.9174
독방	-12.9174
급증	-12.9174
리샤	-12.9174
재현	-12.9174
트루	-12.9174
박연	-12.9174
근데	-12.9174
동심	-12.9174
수학여행	-12.9174
개척	-12.9174
발현	-12.9174
소령	-12.9174
코츠	-12.9174
청부	-12.9174
열기구	-12.9174
혜미	-12.9174
현정	-12.9174
각본	-12.9175
동작	-12.9175
헤치	-12.9175
공군	-12.9175
악행	-12.9175
실증	-12.9175
우즈	-12.9175
순탄	-12.9175
미술관	-12.9175
으라고	-12.9175
꼬일	-12.9175
육군	-12.9175
당연	-12.9175
용루	-12.9175
저희	-12.9176
네덜란드인	-12.9176
추모	-12.9176
머나	-12.9176
크루	-12.9176
요족	-12.9176
니콜	-12.9176
평론가	-12.9176
야생마	-12.9176
지원군	-12.9176
정치범	-12.9177
나이키	-12.9177
타워	-12.9177
뒤덮인	-12.9177
니쿠	-12.9177
종배	-12.9177
피쉬	-12.9177
추문	-12.9177
사바나	-12.9177
거듭난다	-12.9178
스쳐	-12.9178
움직인다	-12.9178
맞닿	-12.9178
윌리엄스	-12.9178
권유	-12.9178
상숙	-12.9178
따라다니	-12.9178
요카	-12.9178
패왕	-12.9179
위안부	-12.9179
질병	-12.9179
배신감	-12.9179
민간인	-12.9179
뒤바뀐다	-12.9179
행크	-12.9179
부처	-12.9179
별난	-12.9179
링크	-12.9179
상승	-12.9179
엔드	-12.9179
세익	-12.918
노린다	-12.918
원혼	-12.918
바쳤	-12.918
왕따	-12.918
올린다	-12.918
견모	-12.918
정철	-12.918
교내	-12.918
질수록	-12.918
상현	-12.918
총력	-12.918
판청	-12.918
루피	-12.918
대폭	-12.918
수도원	-12.9181
민심	-12.9181
정밀	-12.9181
무전기	-12.9181
깨워라	-12.9181
밀려	-12.9181
주지사	-12.9181
지휘관	-12.9181
숨막히	-12.9181
층간	-12.9182
최소	-12.9182
희진	-12.9182
연방	-12.9182
출연진	-12.9182
레이저	-12.9182
태워	-12.9183
바쳐	-12.9183
사찰	-12.9183
사파	-12.9183
시리아	-12.9183
병역	-12.9184
최소한	-12.9184
수염	-12.9184
우드	-12.9184
리프	-12.9184
오웬	-12.9184
구입	-12.9184
우재	-12.9184
도로시	-12.9184
도시락	-12.9184
주린	-12.9184
무예	-12.9185
타투	-12.9185
여운	-12.9185
국면	-12.9185
대장정	-12.9185
왕복	-12.9185
당나라	-12.9186
헤라	-12.9186
타이	-12.9186
씨씨	-12.9186
클리	-12.9186
알프레드	-12.9186
권위	-12.9186
근원	-12.9187
구천	-12.9187
손녀	-12.9187
비록	-12.9187
왜구	-12.9187
무성	-12.9188
병력	-12.9188
싸여	-12.9188
스터	-12.9188
풍기	-12.9188
라엘	-12.9188
용유	-12.9188
언더	-12.9188
재우	-12.9189
교주	-12.9189
구모	-12.9189
장례식장	-12.9189
르네	-12.9189
아르고	-12.9189
플로라	-12.919
보냈	-12.919
모방	-12.919
케일	-12.919
타격	-12.919
생포	-12.919
정우성	-12.9191
가르친	-12.9191
입국	-12.9191
사냥감	-12.9192
몸짓	-12.9192
전혜진	-12.9192
빼내	-12.9192
청해	-12.9192
영정	-12.9192
여래	-12.9193
피트	-12.9193
우진	-12.9193
오딘	-12.9193
선교사	-12.9194
그램	-12.9194
세현	-12.9194
방우	-12.9194
자우림	-12.9195
브리	-12.9195
노크	-12.9195
악동	-12.9195
버니	-12.9196
거래소	-12.9196
애초	-12.9196
올라가	-12.9197
사쿠	-12.9197
궁전	-12.9197
레이크	-12.9197
오드리	-12.9198
정란	-12.9198
설원	-12.9198
타임스	-12.9198
체제	-12.9199
경만	-12.9199
으려면	-12.9199
집문서	-12.92
아슬리	-12.92
적혀	-12.92
약혼자	-12.92
진경	-12.9201
전단지	-12.9201
애타	-12.9201
상점	-12.9201
주둥이	-12.9201
물든	-12.9202
신검	-12.9202
애월	-12.9202
수영장	-12.9202
메간	-12.9202
타카	-12.9202
IR	-12.9203
정호	-12.9203
변호인	-12.9203
사이코	-12.9204
미모	-12.9204
세희	-12.9204
비우	-12.9204
행보	-12.9206
마주한	-12.9206
간병	-12.9206
인맥	-12.9206
접전	-12.9207
불빛	-12.9207
자료	-12.9208
신경전	-12.9208
정정	-12.9209
우마	-12.9209
탐사대	-12.9209
권리	-12.9209
경기장	-12.921
매치	-12.921
유타	-12.921
마친	-12.9211
먹방	-12.9211
보낼	-12.9211
니콜라이	-12.9211
강타	-12.9211
신족	-12.9212
벽장	-12.9212
천상	-12.9213
명랑	-12.9213
차르	-12.9213
실세	-12.9215
비용	-12.9215
시청	-12.9215
충고	-12.9216
사무	-12.9216
전운	-12.9216
천막	-12.9216
남쪽	-12.9216
미러	-12.9216
파편	-12.9216
후예	-12.9217
OO	-12.9217
소진	-12.9218
타우	-12.9218
반군	-12.9218
고속	-12.9218
충분	-12.9218
유명세	-12.9219
설계자	-12.9219
베라	-12.922
사이즈	-12.922
끝난	-12.9221
장식	-12.9222
대쉬	-12.9222
최신	-12.9223
신디	-12.9223
경수	-12.9224
▁Par	-12.9224
별거	-12.9224
필주	-12.9224
각오	-12.9225
전율	-12.9225
가디언	-12.9225
물들이	-12.9226
차트	-12.9227
여친	-12.9227
따분	-12.9228
지웅	-12.923
파티마	-12.9231
내린	-12.9231
들이닥친다	-12.9233
쫓겨난다	-12.9233
팬더	-12.9235
실장	-12.9235
입소	-12.9235
위반	-12.9236
해독	-12.9236
조상	-12.9237
온통	-12.9237
제트	-12.9237
어떡	-12.9238
데스	-12.9238
화상	-12.9239
피신	-12.9239
매주	-12.924
아리스	-12.9241
나락	-12.9243
안티	-12.9246
유서	-12.9246
점보	-12.9247
사형수	-12.9247
HE	-12.9248
장발	-12.9248
빙의	-12.925
일찍	-12.925
재생	-12.9251
왕실	-12.9251
분석	-12.9253
로레인	-12.9254
전당	-12.9255
아냐	-12.9255
집결	-12.9256
내민	-12.9257
칼날	-12.9259
여학생	-12.926
광산	-12.9262
두석	-12.9263
난리	-12.9263
일어서	-12.9263
히로	-12.9264
나갔	-12.9265
카라	-12.9265
이고르	-12.9266
모집	-12.9266
동산	-12.9267
중국집	-12.927
재원	-12.927
무어	-12.927
미제	-12.9271
중증	-12.9271
나기사	-12.9273
폐지	-12.9273
재미있	-12.9275
사체	-12.9276
부차	-12.9276
아이즈	-12.9277
후임	-12.9277
화신	-12.9278
수백만	-12.9279
록산	-12.928
감춘다	-12.9281
바위	-12.9281
어린아이	-12.9282
연하	-12.9283
앞바다	-12.9284
▁하비	-12.9287
서진	-12.9289
경찰관	-12.9289
죽였	-12.9289
대역	-12.929
치호	-12.929
울린다	-12.9291
왕관	-12.9291
라드	-12.9293
비타	-12.9294
혼인	-12.9296
구속	-12.9297
가루	-12.9298
소시	-12.9299
초원	-12.93
열세	-12.9303
손상	-12.9303
이용해	-12.9306
재해	-12.9307
케어	-12.931
야심	-12.9311
위기감	-12.9311
로베르	-12.9317
파일	-12.9317
만행	-12.9318
기술자	-12.932
치료사	-12.9322
혜지	-12.9324
형부	-12.9324
함장	-12.9325
수락	-12.9326
전술	-12.9326
방치	-12.9326
지현	-12.9327
가석방	-12.933
▁그렇	-12.933
진단	-12.9332
지사	-12.9334
양심	-12.9334
▁수학	-12.9334
사생활	-12.9337
자책	-12.9338
판사	-12.9339
하비	-12.9343
미라	-12.9343
지현수	-12.9348
지나온	-12.9348
보였	-12.935
수소문	-12.9351
성질	-12.9353
굴하	-12.9353
방문자	-12.9354
으려던	-12.9354
원더	-12.9355
연주자	-12.9359
만약	-12.9362
버나	-12.9363
웃기	-12.9363
장비	-12.9364
제물	-12.9367
게스트	-12.9367
다국적	-12.937
후정	-12.9371
수석	-12.9374
토와	-12.9375
그래미	-12.9375
들끓	-12.9378
승기	-12.9379
군주	-12.9382
끝없이	-12.9382
모른다	-12.9386
성별	-12.9386
조지아	-12.9388
원비	-12.9391
전력	-12.9393
들른	-12.9397
전방	-12.9405
주공	-12.942
칸다	-12.9428
안관	-12.9429
막장	-12.943
▁거침없	-12.9442
사망자	-12.9443
대담	-12.9445
수사대	-12.9448
레게	-12.945
▁천하	-12.9451
치여	-12.9458
비명	-12.9461
술수	-12.9463
파이	-12.947
죽여	-12.947
인창	-12.9472
실종사건	-12.9481
타라	-12.9482
사상자	-12.9484
개그	-12.949
만만	-12.9496
승아	-12.9496
진전	-12.9498
오세	-12.9498
단장	-12.9498
산장	-12.9503
여름날	-12.9503
양딸	-12.9505
전형	-12.9505
기절	-12.9506
미나	-12.951
이젠	-12.9517
큰일	-12.9517
파산	-12.9517
아키	-12.9522
구한다	-12.953
도법	-12.9531
주도	-12.9533
에리스	-12.9535
그루	-12.9537
어영	-12.9539
오지	-12.9547
아우	-12.9548
강자	-12.9548
치이	-12.9549
성호	-12.9554
후원	-12.956
과장	-12.9566
사명	-12.9568
요로	-12.957
▁업	-12.9578
오후	-12.9578
네오	-12.9596
주리	-12.9596
▁180	-12.9598
윤아	-12.96
강수	-12.9602
모태	-12.9608
지경	-12.962
세계인	-12.9626
군산	-12.9643
모험가	-12.9644
각성	-12.9645
▁축	-12.9657
▁제니	-12.9662
인터	-12.9663
들린	-12.9666
기력	-12.9669
일본인	-12.9673
우려	-12.9674
도통	-12.9696
다급	-12.9697
▁완	-12.9699
▁몰린	-12.971
▁걸려온	-12.971
빌린	-12.9712
▁바친	-12.9713
▁기다린	-12.9713
일선	-12.972
반한다	-12.9721
한복판	-12.9722
냐는	-12.9723
명성	-12.9731
▁보안	-12.9731
날려	-12.9731
배기	-12.9732
공모	-12.9734
▁환	-12.9744
한참	-12.9756
무인	-12.9757
판다	-12.9757
▁발레	-12.9774
▁수도	-12.9776
들키	-12.9779
▁소용돌이	-12.9782
속마음	-12.9782
▁잉	-12.9785
▁마침	-12.9786
▁맑	-12.9786
▁루비	-12.9787
▁도망쳐	-12.9787
크기	-12.9789
▁다름	-12.9793
▁효	-12.9794
▁선우	-12.9796
▁베일	-12.9797
▁코너	-12.9797
▁볼까	-12.9798
▁윌리	-12.9798
▁융	-12.9798
▁뽑	-12.9799
▁마스크	-12.9799
▁떠날	-12.98
▁대작	-12.9801
▁뻔	-12.9801
▁랭	-12.9801
▁롤라	-12.9801
▁멍	-12.9801
▁애써	-12.9802
▁노트	-12.9802
▁엔터	-12.9805
도피	-12.9805
▁할까	-12.9807
▁루시	-12.9807
절대로	-12.9808
▁로렌	-12.9815
견고	-12.982
▁나올	-12.9824
▁룬	-12.9824
살아난다	-12.9825
에브	-12.983
▁도망	-12.9848
▁수천	-12.9853
▁벨	-12.9854
알마	-12.9865
아비	-12.9865
▁요한	-12.9872
▁행사	-12.988
▁포커	-12.988
▁극비	-12.9881
▁당당	-12.9887
▁우울	-12.9888
▁야구	-12.9888
▁산책	-12.9889
▁보통	-12.9901
▁만족	-12.9906
▁야마	-12.991
큐	-12.9912
▁물리	-12.9926
▁해방	-12.9927
다연	-12.9936
▁해져	-12.9941
로키	-12.9944
다우	-12.9945
로우	-12.9946
방과	-12.995
▁호송	-12.9954
▁에르	-12.9959
전후	-12.9972
헌	-12.9973
▁해안	-12.9975
▁발표	-12.9975
▁건설	-12.998
▁신호	-12.9982
할리	-12.9984
바꿔	-12.9984
▁불타	-12.9985
켄	-12.9986
잡힌	-12.9986
쓰러진	-12.9987
바뀐다	-12.9987
무너진	-12.9987
뷰	-12.9987
뚝	-12.9989
똑	-12.999
펑	-12.9991
깨워	-12.9991
프랑수아	-12.9991
무너져	-12.9991
캐슬	-12.9991
콜린	-12.9991
재미	-12.9991
데려간다	-12.9992
배틀	-12.9992
영업	-12.9992
나이트	-12.9992
매트	-12.9993
인상	-12.9993
해질	-12.9993
마츠	-12.9994
포스	-12.9995
플라	-12.9996
상영	-12.9997
월터	-12.9999
헤어	-13
든지	-13.0002
미스	-13.0003
심상	-13.0006
홀린	-13.0008
나비	-13.0017
마리오	-13.0018
▁루이	-13.0024
▁수배	-13.0025
수잔	-13.0025
아스	-13.0026
이른	-13.0027
▁래	-13.0029
이래	-13.0034
그레이	-13.0042
▁만화	-13.0045
▁오지	-13.0053
고개	-13.0053
모리	-13.0055
나미	-13.0061
일단	-13.0077
문제아	-13.009
▁대왕	-13.0091
마사	-13.0092
손자	-13.0103
정해진	-13.0105
지정	-13.0107
시오	-13.0134
▁징	-13.0144
▁닭	-13.0148
태주	-13.0152
하필	-13.0155
이승	-13.0157
일원	-13.0159
▁민주	-13.0163
사주	-13.0172
우아	-13.0173
걸로	-13.0186
이토	-13.0186
우성	-13.0189
▁수집	-13.0192
대대	-13.0198
▁고발	-13.0208
ad	-13.0216
▁설계	-13.0216
떨어진다	-13.0236
▁판매	-13.0237
▁어린이	-13.0243
수세	-13.0245
▁기관	-13.0245
열기	-13.0247
▁쏘	-13.0248
구한	-13.0254
세자	-13.0268
로또	-13.0277
은영	-13.0293
▁발전	-13.0294
모은	-13.0295
나날이	-13.0302
▁조이	-13.0311
칭	-13.0311
에반	-13.0331
▁패션	-13.0338
▁니까	-13.034
고즈	-13.034
이모	-13.0344
▁위안	-13.0356
카가	-13.036
진태	-13.0373
갖은	-13.0375
걸이	-13.0404
▁쏟	-13.0435
▁긴장	-13.0436
생긴다	-13.0443
리드	-13.0474
지박	-13.0474
▁흩어진	-13.0507
낙	-13.0516
신도	-13.054
▁비상	-13.0541
고위	-13.0559
곱	-13.0565
듬	-13.0573
이견	-13.0576
콘	-13.058
덤	-13.0583
래요	-13.0587
톡	-13.059
연다	-13.0591
흡	-13.0591
보름	-13.0591
낯	-13.0593
천성	-13.0593
합창	-13.0594
심부름	-13.0594
흥행	-13.0594
스노우	-13.0594
The	-13.0594
페르시	-13.0594
▁뭉친	-13.0594
▁Go	-13.0594
닥쳐오	-13.0594
부딪치	-13.0594
끼어들	-13.0594
휩쓸리	-13.0595
거머쥐	-13.0595
물러서	-13.0595
빠트리	-13.0595
휘두르	-13.0595
머무르	-13.0595
승승	-13.0595
저격	-13.0595
덩어리	-13.0595
익히	-13.0595
쳐들어오	-13.0595
변강	-13.0595
파랗	-13.0595
잡아먹	-13.0596
토벌	-13.0596
매매	-13.0597
떨치	-13.0597
청천	-13.0598
망가지	-13.0598
앉히	-13.0599
식구	-13.06
진창	-13.06
시효	-13.0601
수원	-13.0601
기쁘	-13.0601
희극	-13.0603
사령	-13.0603
부풀	-13.0604
삼국	-13.0605
메모	-13.0605
모자라	-13.0605
중앙	-13.0605
심청	-13.0606
안식	-13.0608
모범	-13.0608
REA	-13.0608
경시	-13.0609
무색	-13.0609
추진	-13.0611
터리	-13.0611
모터	-13.0611
너희	-13.0613
문학	-13.0614
개업	-13.0614
으라는	-13.0615
비싸	-13.0615
광장	-13.0617
코드	-13.0618
재력	-13.0622
귀국	-13.0623
테크	-13.0623
▁BL	-13.0624
순정	-13.0627
사설	-13.0628
사슬	-13.0628
공중	-13.0628
부호	-13.0629
책임지	-13.0629
▁.?	-13.063
맛보	-13.0631
봉명	-13.0637
우편	-13.0637
봉우리	-13.064
집행	-13.0645
수궁	-13.0649
공사	-13.065
주기	-13.0652
환호	-13.0656
계시	-13.0663
▁IS	-13.067
도신	-13.067
소대	-13.0678
홍수	-13.0683
장미	-13.0683
위원	-13.069
강원	-13.0693
자존	-13.0696
잘리	-13.0698
▁명성	-13.0703
호소	-13.0703
장담	-13.0705
자격	-13.0717
거미	-13.072
수송	-13.073
개비	-13.0755
19	-13.076
비치	-13.0772
가구	-13.0825
이론	-13.0887
건너가	-13.089
단원	-13.0896
장자	-13.0928
ur	-13.0954
SA	-13.0959
다행	-13.0975
▁들린	-13.0976
지점	-13.0991
다채	-13.0991
구도	-13.0996
서사	-13.1005
AM	-13.1009
▁켜	-13.101
이사장	-13.1025
죽도	-13.1069
목하	-13.107
인내	-13.107
▁재미	-13.1083
나사	-13.1083
태자	-13.1114
▁켄	-13.1133
▁잡힌	-13.1141
▁령	-13.1142
▁쓰러진	-13.1144
자두	-13.1144
▁무너진	-13.1148
이미지	-13.1153
▁헤어	-13.1194
▁바꿔	-13.12
▁깨워	-13.1219
▁마츠	-13.1225
미인	-13.1225
▁콜린	-13.1228
▁펑	-13.1229
▁아동	-13.123
▁상영	-13.1232
▁똑	-13.1233
▁심상	-13.1234
▁프랑수아	-13.1234
▁캐슬	-13.1235
▁포스	-13.1235
▁월터	-13.1235
▁영업	-13.1236
▁데려간다	-13.1237
▁무너져	-13.1237
거주	-13.1237
▁뚝	-13.1237
▁매트	-13.1237
▁뷰	-13.1237
▁바뀐다	-13.1237
▁배틀	-13.1237
▁플라	-13.1237
▁큐	-13.1237
▁나이트	-13.1238
▁이른	-13.1239
▁미스	-13.1244
▁홀린	-13.1247
▁모리	-13.125
▁마리오	-13.1258
▁구한	-13.1259
▁수잔	-13.126
▁해질	-13.1261
신인	-13.1264
▁마사	-13.1265
▁그레이	-13.1274
▁나미	-13.1277
한약	-13.1292
▁하필	-13.13
17	-13.1304
▁우아	-13.1306
전도	-13.1328
고모	-13.1328
▁모은	-13.1328
▁덜	-13.1333
▁레코드	-13.1335
▁공기	-13.1336
▁벅	-13.1338
▁사운드	-13.1339
▁수익	-13.1344
▁여우	-13.1348
▁이승	-13.1348
리라	-13.1348
말라	-13.135
*	-13.1351
▁나타	-13.1366
▁이토	-13.1378
▁열기	-13.1379
▁진동	-13.1405
고국	-13.141
▁맷	-13.1422
▁연다	-13.1432
▁났	-13.1441
▁움	-13.1456
▁72	-13.1467
▁떨어진다	-13.1468
▁냐고	-13.1476
▁보상	-13.149
▁밝	-13.151
영하	-13.152
▁등반	-13.1531
▁전시	-13.1546
▁뼈	-13.1546
▁폭주	-13.1546
▁황	-13.156
대항	-13.1562
진한	-13.1562
▁킨	-13.1566
▁에반	-13.1576
와서	-13.1592
▁리아	-13.1602
기억나	-13.1607
붙	-13.1614
홉	-13.1632
외톨	-13.1632
열린	-13.1633
카르	-13.1642
토니	-13.1642
쫓겨난	-13.1645
돌아간	-13.1645
들이닥친	-13.1646
싸운	-13.1646
붙잡	-13.1646
줄리아	-13.1648
캐롤	-13.1648
돌아올	-13.1649
크리스토	-13.165
드래	-13.1652
제프	-13.1655
키드	-13.1655
▁팡	-13.1655
스즈	-13.1657
마키	-13.1658
W	-13.1658
▁줍	-13.1659
조심	-13.1659
채드	-13.1664
거스	-13.1677
▁립	-13.1682
벌인	-13.1692
한방	-13.1698
-	-13.17
로빈	-13.1712
제이	-13.1731
w	-13.175
▁화산	-13.1752
▁공동	-13.1759
비어	-13.1759
▁해수	-13.1788
신하	-13.1791
▁춘	-13.1802
▁리라	-13.1806
NR	-13.1825
보내온	-13.1832
▁서커스	-13.1859
혹	-13.1859
ca	-13.1863
ar	-13.1926
개성	-13.1938
lac	-13.1942
제과	-13.1943
▁스키	-13.1965
단어	-13.1973
힌다	-13.1983
이식	-13.1984
▁밀리	-13.1988
▁수호	-13.2
어치	-13.2016
다크	-13.2019
반한	-13.2026
에드	-13.2057
렸	-13.2062
SE	-13.2062
화성	-13.2081
펠	-13.2089
태석	-13.2102
▁190	-13.2127
유성	-13.2164
▁흐른	-13.217
주영	-13.2171
닌	-13.2195
휴	-13.221
녹	-13.222
뒤덮	-13.2221
섞	-13.2221
쉬운	-13.2228
룡	-13.2231
주머니	-13.2234
사토	-13.224
섭	-13.2241
미완	-13.2241
릿	-13.2243
멈	-13.2244
국방	-13.2246
드레스	-13.2249
뿌	-13.2249
아메리카	-13.225
받아들인	-13.2252
드러낸	-13.2252
글라스	-13.2252
냉	-13.2253
부턴	-13.2253
정규직	-13.2254
식민	-13.2255
멘	-13.2255
셀	-13.2255
샬	-13.2256
미르	-13.2256
즉	-13.2256
유행	-13.2257
윈	-13.2257
연예	-13.2258
싸워	-13.2258
벼락	-13.2258
픽	-13.2258
엠	-13.2258
슬퍼	-13.2259
퍼스	-13.2259
댄	-13.2259
결합	-13.2259
딕	-13.2259
토스카	-13.2259
잊혀져	-13.226
꾸린	-13.226
배운	-13.226
트립	-13.226
케이크	-13.226
왈	-13.226
안드레아	-13.226
뷔	-13.226
닷	-13.226
모스크	-13.226
헤어져	-13.2261
긋	-13.2261
터져	-13.2261
감춰	-13.2261
찾아올까	-13.2261
샌	-13.2261
미세먼지	-13.2261
꿈꿔온	-13.2261
아름다웠	-13.2261
약육강식	-13.2261
옮긴다	-13.2261
우크라	-13.2261
옵	-13.2261
초록색	-13.2261
객석	-13.2261
햄	-13.2261
갑상선암	-13.2261
성형외과	-13.2261
어설픈	-13.2261
옥황상제	-13.2261
욕심쟁이	-13.2261
일확천금	-13.2261
대관식	-13.2261
부른	-13.2261
허수아비	-13.2261
뒤통수	-13.2261
어째서	-13.2261
ion	-13.2261
가벼운	-13.2261
가브리엘	-13.2261
가창력	-13.2261
결혼기념일	-13.2261
골짜기	-13.2261
공효진	-13.2261
구드룬	-13.2261
국카스텐	-13.2261
긴즈버그	-13.2261
김창옥	-13.2261
김희원	-13.2261
까마귀	-13.2261
내셔널	-13.2261
누벨바그	-13.2261
뉴올리언스	-13.2261
다이애나	-13.2261
달란트	-13.2261
두근두근	-13.2261
디저트	-13.2261
디즈니	-13.2261
따돌림	-13.2261
라이오넬	-13.2261
라파엘	-13.2261
런닝맨	-13.2261
레슬러	-13.2261
레인보우	-13.2261
레퍼토리	-13.2261
롤린스	-13.2261
르블랑	-13.2261
리메이크	-13.2261
리본군	-13.2261
린드그렌	-13.2261
마그레브	-13.2261
마누엘	-13.2261
마에스트로	-13.2261
마히토	-13.2261
말레이시아	-13.2261
메르세데스	-13.2261
모가디슈	-13.2261
모니카	-13.2261
문익환	-13.2261
미치광이	-13.2261
미클로시	-13.2261
바르샤바	-13.2261
바이바이	-13.2261
배고픔	-13.2261
배트맨	-13.2261
버틀러	-13.2261
베서니	-13.2261
베아트리스	-13.2261
부끄럽	-13.2261
뷰티풀	-13.2261
브레송	-13.2261
빅토리아	-13.2261
빈센트	-13.2261
빗발치	-13.2261
빠짐없이	-13.2261
뽀롱뽀롱	-13.2261
삐걱거리	-13.2261
사익스	-13.2261
샤를리즈	-13.2261
샹그릴라	-13.2261
세드릭	-13.2261
세르게이	-13.2261
세바스찬	-13.2261
세운상가	-13.2261
소비에트	-13.2261
소프트웨어	-13.2261
스케이팅	-13.2261
스콜피온	-13.2261
스쿠터	-13.2261
스타디움	-13.2261
스트레인지	-13.2261
스피릿	-13.2261
시베리아	-13.2261
시즈쿠	-13.2261
시칠리아	-13.2261
아르헤리치	-13.2261
아브라함	-13.2261
아스트리드	-13.2261
아우구스토	-13.2261
아웃사이더	-13.2261
안쓰럽	-13.2261
안티고네	-13.2261
알고리즘	-13.2261
알래스카	-13.2261
알렉상드르	-13.2261
애나벨	-13.2261
어렵사리	-13.2261
얼어붙	-13.2261
엇갈린	-13.2261
에드가르도	-13.2261
에스토니아	-13.2261
예루살렘	-13.2261
오스트리아	-13.2261
유난히	-13.2261
으스스	-13.2261
인디아나	-13.2261
지긋지긋	-13.2261
진선규	-13.2261
체르노빌	-13.2261
카리스마	-13.2261
카우보이	-13.2261
캠코더	-13.2261
쿠라모치	-13.2261
크라켄	-13.2261
클래스	-13.2261
키리토	-13.2261
탈레반	-13.2261
테츠로	-13.2261
템페스트	-13.2261
토렌스	-13.2261
투란도트	-13.2261
티무르	-13.2261
파스파	-13.2261
패멀라	-13.2261
퍼센트	-13.2261
페드로	-13.2261
페미니스트	-13.2261
편의점	-13.2261
프라이스	-13.2261
프러포즈	-13.2261
플로레스	-13.2261
플로리안	-13.2261
하이브리드	-13.2261
해럴슨	-13.2261
해리엇	-13.2261
핸드백	-13.2261
헤일리	-13.2261
현모양처	-13.2261
호락호락	-13.2261
홀로코스트	-13.2261
획득	-13.2261
휘말린	-13.2261
희로애락	-13.2261
히나코	-13.2261
히말라야	-13.2261
가면라이더	-13.2261
구덩이	-13.2261
늘어놓	-13.2261
데니스	-13.2261
돌려받	-13.2261
따른다	-13.2261
로돌포	-13.2261
마스네	-13.2261
마일즈	-13.2261
멍청이	-13.2261
미우라	-13.2261
불가사리	-13.2261
사육사	-13.2261
상관없이	-13.2261
성실히	-13.2261
소말리아	-13.2261
스위스	-13.2261
야마나시	-13.2261
어워드	-13.2261
오필리아	-13.2261
이병헌	-13.2261
적당히	-13.2261
전두환	-13.2261
코미야	-13.2261
할로윈	-13.2261
고메즈	-13.2261
마라톤	-13.2261
맥도널드	-13.2261
반가운	-13.2261
반달곰	-13.2261
빌어먹	-13.2261
아르투로	-13.2261
아슈라	-13.2261
안테나	-13.2261
자스민	-13.2261
카운트다운	-13.2261
패트릭	-13.2261
퓨처	-13.2261
하로동선	-13.2261
거꾸로	-13.2261
견자단	-13.2261
떨어뜨리	-13.2261
문재인	-13.2261
백만장자	-13.2261
사사키	-13.2261
스마일	-13.2261
쓰러뜨리	-13.2261
오렌지	-13.2261
와타루	-13.2261
추기경	-13.2261
킬패트릭	-13.2261
펼쳐질	-13.2261
하운드	-13.2261
흉측	-13.2261
ose	-13.2261
두드린다	-13.2261
뒤섞여	-13.2261
뒤섞인	-13.2261
뒤집어쓰	-13.2261
망가져	-13.2261
무너뜨릴	-13.2261
미라벨	-13.2261
바깥세상	-13.2261
불어넣	-13.2261
빠트린	-13.2261
야마시로	-13.2261
이찬우	-13.2261
흩어져	-13.2261
공소시효	-13.2261
꺼낸다	-13.2261
끈질긴	-13.2261
스며든	-13.2261
이정현	-13.2261
접어든	-13.2261
코드네임	-13.2261
쾌락	-13.2261
탐관오리	-13.2261
파우스트	-13.2261
매트릭스	-13.2261
불태운다	-13.2261
차라리	-13.2261
카에데	-13.2261
콘테스트	-13.2261
투합	-13.2261
포트리스	-13.2261
흔들렸	-13.2261
다녀온	-13.2261
떠밀려	-13.2261
멜라니	-13.2261
부추김	-13.2261
샤크스킨	-13.2261
아스널	-13.2261
어딘지	-13.2261
염정아	-13.2261
파이널	-13.2261
갇혔	-13.2261
끈끈	-13.2261
들여다본다	-13.2261
리스닝	-13.2261
아스트로	-13.2261
오노다	-13.2261
요하난	-13.2261
카즈토	-13.2261
킬링	-13.2261
트레져	-13.2261
갑니다	-13.2261
무너뜨리	-13.2261
미라클	-13.2261
아즈사	-13.2261
회고록	-13.2261
날카로운	-13.2261
들여놓	-13.2261
웨딩	-13.2261
북극곰	-13.2261
찾아낸다	-13.2261
캐스트	-13.2261
휘말렸	-13.2261
누빈다	-13.2261
숨어든	-13.2261
알아낸다	-13.2261
척척박사	-13.2261
휴먼	-13.2261
공화국	-13.2261
떡잎	-13.2261
미혼모	-13.2261
서둘러	-13.2261
슈베르트	-13.2261
태어났	-13.2261
앤드류	-13.2261
풋내기	-13.2261
픽업	-13.2261
향각	-13.2261
호가드	-13.2261
괴롭힌다	-13.2261
기다림	-13.2261
몽골	-13.2261
브람스	-13.2261
블로그	-13.2261
장난꾸러기	-13.2261
학습	-13.2261
기나긴	-13.2261
휘발유	-13.2261
지날수록	-13.2261
카르멘	-13.2261
도사린	-13.2261
사비나	-13.2261
앵무새	-13.2261
어려서	-13.2261
웨스트	-13.2261
다툰다	-13.2261
대리운전	-13.2261
액체	-13.2261
친화력	-13.2261
교향	-13.2261
니가타	-13.2261
찾아갔	-13.2261
침범	-13.2261
포위망	-13.2261
봉오동	-13.2261
합친다	-13.2261
옥탑방	-13.2261
이채연	-13.2261
옥수역	-13.2261
제과점	-13.2261
허름	-13.2261
확정	-13.2261
와일드	-13.2261
우체국	-13.2261
워렌	-13.2261
날라리	-13.2261
파이프	-13.2261
대수롭	-13.2261
스턴트맨	-13.2261
싸이코	-13.2261
폴레트	-13.2261
eat	-13.2261
공통점	-13.2261
리시아	-13.2261
참다랑어	-13.2261
협객	-13.2261
관람객	-13.2261
케이프	-13.2261
파고드	-13.2261
보급품	-13.2261
핵폐기물	-13.2261
흥신소	-13.2261
송환	-13.2261
짓눌려	-13.2261
카스미	-13.2261
최하위	-13.2261
하여금	-13.2261
올리비아	-13.2261
내려놓	-13.2261
심리학	-13.2261
엄친	-13.2261
통조림	-13.2262
공안국	-13.2262
스트랜드	-13.2262
아리랑	-13.2262
겨루	-13.2262
드리운	-13.2262
출처	-13.2262
톱스타	-13.2262
노랫소리	-13.2262
황궁	-13.2262
이네스	-13.2262
부여잡	-13.2262
크리퍼	-13.2262
습관	-13.2262
아지트	-13.2262
액스	-13.2262
최면술	-13.2262
듀크	-13.2262
억지로	-13.2262
폭우	-13.2262
플랫	-13.2262
동급생	-13.2262
퇴물	-13.2262
바리스타	-13.2262
케이코	-13.2262
굿판	-13.2262
교환	-13.2262
낙방	-13.2262
착취	-13.2262
버나드	-13.2262
사무소	-13.2262
아일리	-13.2262
규환	-13.2262
돌하르방	-13.2262
주름잡	-13.2262
집배원	-13.2262
찌질	-13.2262
황홀	-13.2262
사무실	-13.2262
터트리	-13.2262
냉담	-13.2262
완료	-13.2262
이케아	-13.2262
레들러	-13.2262
이집트	-13.2262
풍족	-13.2262
몽학	-13.2262
협연	-13.2262
독촉	-13.2262
한물간	-13.2262
마이콘	-13.2262
베니스	-13.2262
안드레아스	-13.2262
외교관	-13.2262
편집증	-13.2262
마로나	-13.2262
정규군	-13.2262
베르디	-13.2262
승원	-13.2262
폰테	-13.2262
아일라	-13.2262
협회	-13.2262
붙잡혀	-13.2262
맞춰	-13.2262
보름달	-13.2262
객잔	-13.2262
어나더	-13.2262
불법체류	-13.2262
히로시	-13.2262
스푼	-13.2262
꽃가루	-13.2262
옥죄	-13.2262
찍혀	-13.2262
패닝	-13.2262
▁186	-13.2262
브레인	-13.2262
버틸	-13.2262
민낯	-13.2262
대왕고래	-13.2262
무채색	-13.2262
꼭대기	-13.2262
가스실	-13.2262
몸부림치	-13.2262
샹치	-13.2262
역습	-13.2262
수화기	-13.2262
충성심	-13.2262
물리친다	-13.2262
솔깃	-13.2262
공황	-13.2262
염진	-13.2262
키드먼	-13.2262
이토록	-13.2262
팀워크	-13.2262
곰돌이	-13.2262
로즈메리	-13.2262
유민호	-13.2262
레벨	-13.2262
케이브	-13.2262
젠틀	-13.2262
들어왔	-13.2262
미니언	-13.2262
순례	-13.2262
니콜라스	-13.2262
힐스	-13.2262
요제프	-13.2262
픽시	-13.2262
결백	-13.2262
유대감	-13.2262
쿠퍼	-13.2262
끌림	-13.2263
베르너	-13.2263
사로잡혀	-13.2263
민주주의	-13.2263
포춘	-13.2263
자유자재	-13.2263
드리우	-13.2263
서사시	-13.2263
잠재력	-13.2263
축복	-13.2263
금요일	-13.2263
승훈	-13.2263
꽃피우	-13.2263
텐션	-13.2263
크리스털	-13.2263
겉모습	-13.2263
카톡	-13.2263
석환	-13.2263
루카스	-13.2263
츠카사	-13.2263
교류	-13.2263
즐길	-13.2263
애덤	-13.2263
샤샤	-13.2263
보드게임	-13.2263
경석	-13.2263
트리거	-13.2263
곤충	-13.2263
테이크	-13.2263
뛰놀	-13.2263
세이야	-13.2263
루마니아	-13.2263
침대	-13.2263
경영	-13.2263
코러스	-13.2263
코이치로	-13.2263
링턴	-13.2263
유례없	-13.2263
크리드	-13.2263
경비원	-13.2263
죽여야	-13.2263
시티헌터	-13.2263
파헤쳐	-13.2263
테르	-13.2263
청약	-13.2263
티렉스	-13.2263
베르크	-13.2263
원예사	-13.2263
행각	-13.2263
루팡	-13.2263
항복	-13.2263
미용	-13.2263
직구	-13.2263
표식	-13.2263
케이시	-13.2263
카일리	-13.2263
종료	-13.2264
영험	-13.2264
패턴	-13.2264
▁99	-13.2264
이루어진	-13.2264
폭주족	-13.2264
아이템	-13.2264
천문학	-13.2264
미사토	-13.2264
따위	-13.2264
애쓴다	-13.2264
투혼	-13.2264
김대중	-13.2264
향했	-13.2264
티모시	-13.2264
노엘	-13.2264
질환	-13.2264
치악산	-13.2264
핵폭탄	-13.2264
탐라	-13.2264
떨리	-13.2264
속임수	-13.2264
헌트	-13.2264
메리언	-13.2264
손가락	-13.2264
흉내	-13.2264
우람	-13.2264
샤먼	-13.2264
극단주의	-13.2264
풍부	-13.2264
욕창	-13.2264
크로스	-13.2264
벗어난	-13.2264
이어질	-13.2264
힐라	-13.2264
디젤	-13.2264
공모전	-13.2264
예능	-13.2264
형편없	-13.2264
급변	-13.2264
경악	-13.2264
난폭	-13.2264
친근	-13.2264
강릉	-13.2264
▁Re	-13.2265
부정부패	-13.2265
이방인	-13.2265
존폐	-13.2265
아야나미	-13.2265
켄트	-13.2265
최우수	-13.2265
공백	-13.2265
개릿	-13.2265
운행	-13.2265
마술사	-13.2265
토스카나	-13.2265
민석	-13.2265
타이치	-13.2265
이슬이	-13.2265
게릴라전	-13.2265
준혁	-13.2265
흑표	-13.2265
벌써	-13.2265
아키오	-13.2265
스톡	-13.2265
캐밀	-13.2265
맥주	-13.2265
경연	-13.2265
징역	-13.2265
보여준다	-13.2265
억척	-13.2265
브랜드	-13.2265
탈영	-13.2265
일어날	-13.2265
젊은이	-13.2265
칠레	-13.2265
연령	-13.2265
스타트	-13.2265
토베	-13.2265
빈곤	-13.2265
계약직	-13.2265
커진	-13.2265
청력	-13.2265
초고속	-13.2265
갖추	-13.2265
충서	-13.2265
월스트리트	-13.2265
출생	-13.2265
머레이	-13.2265
약탈자	-13.2265
김의성	-13.2265
흘러간다	-13.2266
군자금	-13.2266
춘천	-13.2266
봉투	-13.2266
패권	-13.2266
난항	-13.2266
캠핑카	-13.2266
카오리	-13.2266
웬디	-13.2266
게이트	-13.2266
모모코	-13.2266
영광	-13.2266
악랄	-13.2266
변치	-13.2266
유죄	-13.2266
현존	-13.2266
백두산	-13.2266
희철	-13.2266
▁36	-13.2266
괴소문	-13.2266
모튼	-13.2266
샤론	-13.2266
걸어가	-13.2267
태평양	-13.2267
크리스천	-13.2267
람보	-13.2267
불태워	-13.2267
▁제이	-13.2267
언약	-13.2267
포트	-13.2267
맨슨	-13.2267
징조	-13.2267
강변	-13.2267
유골	-13.2267
변해간다	-13.2267
이웃사촌	-13.2267
참견	-13.2267
위원장	-13.2267
오른팔	-13.2267
탑승객	-13.2267
채워줄	-13.2267
카렌	-13.2267
알아차린다	-13.2267
공학자	-13.2267
언급	-13.2267
쓸모	-13.2267
연리지	-13.2267
습지	-13.2267
발랄	-13.2267
데미안	-13.2267
패티	-13.2267
음향	-13.2268
연예인	-13.2268
정해인	-13.2268
유괴범	-13.2268
이학성	-13.2268
승연	-13.2268
터스	-13.2268
산산이	-13.2268
▁35	-13.2268
돌턴	-13.2268
르투	-13.2268
곤경	-13.2268
노예	-13.2268
레노	-13.2268
후퇴	-13.2268
뒤집힌다	-13.2268
모래	-13.2268
웃긴	-13.2268
국회	-13.2268
검색	-13.2268
부활절	-13.2268
화끈	-13.2268
낭자	-13.2268
시헌	-13.2268
운범	-13.2268
메조	-13.2269
카봇	-13.2269
조커	-13.2269
생겨	-13.2269
체결	-13.2269
추종	-13.2269
밀린	-13.2269
바라본다	-13.2269
재건축	-13.2269
포악	-13.2269
이끌린다	-13.2269
존슨	-13.2269
무겁	-13.2269
만삭	-13.2269
필연	-13.227
괴로워한다	-13.227
헤니	-13.227
흔한	-13.227
알려준	-13.227
연약	-13.227
표면	-13.227
맡긴	-13.227
북쪽	-13.227
현란	-13.227
몰려온다	-13.227
발신자	-13.227
더글라스	-13.227
멀론	-13.227
근본	-13.227
요격	-13.227
희경	-13.227
영찬	-13.227
쇼맨	-13.227
처했	-13.227
교신	-13.227
눈동자	-13.2271
미쳤	-13.2271
혼식	-13.2271
원룸	-13.2271
족벌	-13.2271
릿지	-13.2271
국정	-13.2271
흑역사	-13.2271
비싼	-13.2271
애절	-13.2271
레디	-13.2271
발언	-13.2271
돌린다	-13.2271
길잡이	-13.2271
연민	-13.2271
본거지	-13.2271
곤란	-13.2271
황소	-13.2272
안성기	-13.2272
세워	-13.2272
친형제	-13.2272
종족	-13.2272
권총	-13.2272
테론	-13.2272
소현	-13.2272
서창대	-13.2272
구암	-13.2272
시드니	-13.2272
베디	-13.2272
관우	-13.2272
외아들	-13.2272
반대파	-13.2273
앞잡이	-13.2273
섬머	-13.2273
우주비행사	-13.2273
공방	-13.2273
사쿠라	-13.2273
디노	-13.2273
강봉	-13.2273
꾸린다	-13.2273
발명품	-13.2273
오롯	-13.2273
다름없이	-13.2273
맘대로	-13.2273
박강	-13.2273
왜가리	-13.2273
이민자	-13.2273
동정	-13.2274
불능	-13.2274
상훈	-13.2274
디버스	-13.2274
니슨	-13.2274
세이지	-13.2274
유배	-13.2274
조현	-13.2274
너클	-13.2274
홍방	-13.2274
불타오르	-13.2274
챈다	-13.2274
강동원	-13.2274
알프스	-13.2274
국선	-13.2274
데릭	-13.2274
석유	-13.2274
이태원	-13.2274
초짜	-13.2274
성장통	-13.2275
총출동	-13.2275
호출	-13.2275
교단	-13.2275
왜곡	-13.2275
대부호	-13.2275
혁신	-13.2275
색스	-13.2275
배운다	-13.2275
철우	-13.2275
겨자	-13.2275
카티	-13.2275
부슈	-13.2275
순철	-13.2275
이치로	-13.2275
였으나	-13.2276
정직	-13.2276
몰라	-13.2276
미투	-13.2276
커진다	-13.2276
쇼코	-13.2276
창밖	-13.2276
선교	-13.2276
방탕	-13.2276
외딴섬	-13.2276
진출	-13.2276
규정	-13.2276
유해진	-13.2276
키울	-13.2276
차림	-13.2277
체크	-13.2277
정석	-13.2277
잠식	-13.2277
짐작	-13.2277
판결	-13.2277
미루	-13.2277
시추	-13.2277
학비	-13.2277
경쟁심	-13.2277
조절	-13.2278
썸남	-13.2278
상류	-13.2278
레이디	-13.2278
그린랜드	-13.2278
부동	-13.2278
케이지	-13.2278
내몰린	-13.2278
신변	-13.2278
가까워진	-13.2278
맹인	-13.2278
업소	-13.2278
제각각	-13.2278
베드	-13.2279
숨겨온	-13.2279
종구	-13.2279
금강	-13.2279
영석	-13.2279
메달	-13.2279
체조	-13.2279
탐사선	-13.2279
판매원	-13.2279
수확	-13.228
해적선	-13.228
발루	-13.228
상필	-13.228
마샤	-13.228
율리	-13.228
블루스	-13.228
미행	-13.228
제빵	-13.228
제레미	-13.2281
반석	-13.2281
이어진다	-13.2281
악질	-13.2281
임영웅	-13.2281
구애	-13.2281
정당	-13.2281
송해	-13.2281
절정	-13.2281
해결책	-13.2281
사이클	-13.2281
조류	-13.2282
덮이	-13.2282
비상금	-13.2282
불굴	-13.2282
음색	-13.2282
카파	-13.2282
쿠타	-13.2282
베니	-13.2283
노조	-13.2283
뜻대로	-13.2283
끝낸	-13.2283
빈자리	-13.2283
매달	-13.2283
평안	-13.2283
부턴가	-13.2283
별빛	-13.2284
독거	-13.2284
손바닥	-13.2284
훈장	-13.2284
진녀	-13.2284
강하늘	-13.2284
리버티	-13.2284
성룡	-13.2284
멀리건	-13.2284
장래	-13.2284
선희	-13.2284
새긴	-13.2284
슈퍼맨	-13.2284
문화제	-13.2284
발급	-13.2284
거센	-13.2284
변함없이	-13.2284
혼신	-13.2285
파우	-13.2285
무녀	-13.2285
달린다	-13.2285
최애	-13.2285
현생	-13.2285
거머	-13.2286
버든	-13.2286
정점	-13.2286
안느	-13.2286
돌체	-13.2286
오닐	-13.2286
깊숙이	-13.2286
홍마	-13.2286
연정	-13.2286
실험실	-13.2286
팔순	-13.2287
행세	-13.2287
스탄	-13.2287
무사시	-13.2287
지켜본	-13.2287
북군	-13.2287
타락	-13.2287
신설	-13.2287
가쁘	-13.2288
더블	-13.2288
화석	-13.2288
러거	-13.2288
타이어	-13.2288
유모	-13.2288
영란	-13.2289
벽화	-13.2289
죠니	-13.2289
Mi	-13.2289
절박	-13.2289
이어받	-13.2289
병든	-13.2289
파병	-13.2289
미영	-13.229
공포증	-13.229
정책	-13.229
오로라	-13.229
보람	-13.229
키트	-13.229
아라타	-13.229
말린다	-13.2291
경보	-13.2291
용구	-13.2291
알랭	-13.2291
기후	-13.2291
눈먼	-13.2291
양육	-13.2291
반점	-13.2291
히어로즈	-13.2291
슈퍼카	-13.2292
대환	-13.2292
주동자	-13.2292
부당	-13.2292
총구	-13.2292
에세이	-13.2292
털리	-13.2292
설마	-13.2293
시행	-13.2293
정파	-13.2293
타오른다	-13.2293
접시	-13.2293
궁중	-13.2293
골치	-13.2293
악구	-13.2294
대접	-13.2294
공시	-13.2294
공안	-13.2294
겸비	-13.2295
계천	-13.2295
무기력	-13.2295
여행객	-13.2295
여전사	-13.2295
정연	-13.2295
예감	-13.2295
사샤	-13.2295
섞이	-13.2295
월급	-13.2296
끝낼	-13.2296
아미르	-13.2296
번역가	-13.2296
연구실	-13.2296
옷장	-13.2296
단칼	-13.2297
차세대	-13.2297
안소니	-13.2297
선종	-13.2298
경주	-13.2299
기관사	-13.2299
상견	-13.2299
진우	-13.2299
요나라	-13.2299
리버	-13.23
상철	-13.23
마르지	-13.2301
미연	-13.2301
재구	-13.2301
LE	-13.2301
소연	-13.2301
번져	-13.2301
천섬	-13.2301
그렉	-13.2301
상냥	-13.2301
바울	-13.2302
미트	-13.2302
주의자	-13.2302
피피	-13.2304
모화	-13.2304
준우	-13.2304
선별	-13.2304
자궁	-13.2304
차탄	-13.2305
성폭행	-13.2305
히사	-13.2305
등급	-13.2305
맛집	-13.2306
불교	-13.2306
소금	-13.2306
심바	-13.2306
극심	-13.2306
담임	-13.2306
범상	-13.2307
들어와	-13.2307
귀문	-13.2307
겁나	-13.2307
무순	-13.2307
허치	-13.2307
판돈	-13.2307
위즈	-13.2307
혈안	-13.2308
정국	-13.2308
잡혀가	-13.2308
기습	-13.2308
성립	-13.2309
책방	-13.2309
예고장	-13.2309
용왕	-13.2309
니키	-13.2309
비루	-13.2309
등교	-13.2309
유미	-13.2309
서늘	-13.231
뇌사	-13.231
프랑스군	-13.231
북부	-13.231
오락	-13.231
빠져드	-13.2311
소천	-13.2311
쿠라	-13.2311
독보	-13.2311
블라	-13.2311
매리	-13.2312
45	-13.2312
납치범	-13.2312
실상	-13.2313
혹하	-13.2313
드물	-13.2313
시빌	-13.2313
낸시	-13.2314
용진	-13.2314
나나	-13.2314
소란	-13.2314
살림	-13.2315
저곳	-13.2315
장르	-13.2315
칼리	-13.2315
총감	-13.2315
장정	-13.2316
울음	-13.2316
북간	-13.2316
했으나	-13.2317
성혜	-13.2317
마티	-13.2318
주운	-13.232
집들이	-13.2321
대망	-13.2321
초반	-13.2321
대현	-13.2321
질리	-13.2322
글리	-13.2322
혈중	-13.2322
전해진다	-13.2324
팔리	-13.2324
데본	-13.2325
용주	-13.2325
그렸	-13.2325
마세요	-13.2325
춘자	-13.2325
and	-13.2325
대답	-13.2326
화피	-13.2326
신종	-13.2327
강진	-13.2327
소행성	-13.2327
원경	-13.2327
정화	-13.2328
특별히	-13.2328
금비	-13.2328
타파	-13.2328
목표물	-13.2329
연장	-13.2329
어찌	-13.2329
비친	-13.233
방사	-13.233
선조	-13.233
씩씩	-13.2331
전근	-13.2332
장애물	-13.2332
상식	-13.2332
채용	-13.2333
소형	-13.2333
라메	-13.2333
미정	-13.2333
장거리	-13.2333
교인	-13.2333
음력	-13.2334
상극	-13.2334
촬영장	-13.2334
영남	-13.2335
정진	-13.2335
메라	-13.2335
배려	-13.2336
바로잡	-13.2337
기획사	-13.2338
호프만	-13.2338
민중	-13.2338
차파	-13.2339
디비	-13.2339
대포	-13.234
조화	-13.2341
수줍	-13.2342
정신없이	-13.2343
지폐	-13.2343
연말	-13.2344
발끝	-13.2345
그러다가	-13.2345
양쪽	-13.2345
스쿨	-13.2346
부담	-13.2346
비범	-13.2346
영진	-13.2346
네모	-13.2346
아스카	-13.2346
인사이드	-13.2347
소월	-13.2347
참사	-13.2348
마약상	-13.2348
병세	-13.2349
학도	-13.2349
명곡	-13.2349
소위	-13.2349
나설	-13.235
억만	-13.235
외도	-13.2351
지킨	-13.2351
비트	-13.2352
방불	-13.2352
침입자	-13.2352
오즈	-13.2353
친해	-13.2354
광수	-13.2355
내몰	-13.2356
죄인	-13.2357
재차	-13.2358
마구	-13.2359
전락	-13.2359
돌비	-13.2359
리타	-13.236
나래	-13.236
평산	-13.2361
벽보	-13.2361
난세	-13.2361
제보자	-13.2362
팔마	-13.2363
시동	-13.2364
용후	-13.2364
토대	-13.2364
합의	-13.2365
흩어진다	-13.2365
누적	-13.2365
장현재	-13.2365
서유	-13.2366
러스	-13.2366
원본	-13.2366
준상	-13.2368
작정	-13.2368
먹물	-13.237
입시	-13.237
시천	-13.237
편안	-13.2371
쓰러진다	-13.2371
상심	-13.2372
거금	-13.2372
계단	-13.2373
길거리	-13.2374
비저	-13.2374
효과	-13.2374
단계	-13.2374
당대	-13.2374
쳐서	-13.2375
젠산	-13.2378
여름밤	-13.2378
대국민	-13.2378
붙잡힌	-13.2379
종전	-13.238
따라간	-13.238
힘쓰	-13.238
따라서	-13.238
세트	-13.2381
마호	-13.2384
진위	-13.2384
금속	-13.2385
막심	-13.2385
수능	-13.2386
신기록	-13.2386
무진	-13.2387
몰린다	-13.2388
경지	-13.2389
남강	-13.239
주유	-13.2392
임시	-13.2392
호스	-13.2393
근수	-13.2394
코코로	-13.2394
안경	-13.2395
자르	-13.2396
호크	-13.2398
영사	-13.2398
보존	-13.2399
걸려온다	-13.24
자객	-13.2401
평양	-13.2401
마군	-13.2401
빌려와	-13.2402
방제	-13.2403
국도	-13.2403
시어머니	-13.2403
마음대로	-13.2403
거반	-13.2404
빼앗긴다	-13.2404
살벌	-13.2405
무관	-13.2406
바친다	-13.2406
전류	-13.2406
밤새	-13.2406
송가	-13.2407
할매	-13.2409
그리스도	-13.2409
인숙	-13.2409
태극	-13.2409
배신자	-13.2411
동인	-13.2412
입원	-13.2412
거동	-13.2413
왕위	-13.2416
내세우	-13.2416
엘리자	-13.2417
지낸다	-13.2417
초대장	-13.2418
종적	-13.2418
불상	-13.2418
패자	-13.242
사로잡힌다	-13.2422
월나라	-13.2422
길호	-13.2423
고등어	-13.2423
달달	-13.2425
장관	-13.2427
구사	-13.2427
참가자	-13.2427
쌓인	-13.2429
내키	-13.2429
자행	-13.243
궁지	-13.2431
나린	-13.2434
알린	-13.2436
불온	-13.2438
호세	-13.2438
아현	-13.2438
연기자	-13.2439
부상자	-13.244
다룰	-13.244
관리자	-13.2441
절도	-13.2444
부여	-13.2445
보호사	-13.245
다솔	-13.245
도망자	-13.2451
대전투	-13.2451
근로	-13.2452
오드	-13.2453
대강	-13.2454
ut	-13.2455
존중	-13.2456
만찬	-13.2457
어촌	-13.2457
막상	-13.2458
ne	-13.2458
무전	-13.2458
양국	-13.2459
거스를	-13.2459
대동	-13.246
형편	-13.2461
경아	-13.2461
고은영	-13.2462
대해서	-13.2465
국어	-13.2466
설산	-13.2471
제타	-13.2473
상하이	-13.2473
옛사랑	-13.2474
화서	-13.2477
관리인	-13.2478
주범	-13.2478
도령	-13.2483
쿠도	-13.2487
동학	-13.2487
서신	-13.2487
지낸	-13.2493
지나간	-13.2495
보모	-13.2495
로스트	-13.2495
명지	-13.2498
일종	-13.2498
형성	-13.25
세무	-13.2503
간밤	-13.2505
위생	-13.2507
소라	-13.2508
맨날	-13.2509
고용주	-13.2511
중력	-13.2514
안심	-13.2514
로써	-13.2515
제스	-13.2516
아이작	-13.2518
주요	-13.2518
시걸	-13.2521
▁신하	-13.2522
or	-13.2524
환한	-13.2525
수찬	-13.2528
밀수	-13.253
중학생	-13.2533
역적	-13.2533
할지	-13.2536
단소	-13.2537
너야	-13.2538
정전	-13.2538
통해서	-13.2541
주저	-13.2549
연수	-13.255
들떠	-13.255
패기	-13.2552
정해	-13.2554
서생	-13.2556
인석	-13.2557
▁외톨	-13.2559
경성	-13.2562
성경	-13.2562
라힘	-13.2563
고혁	-13.2566
해안가	-13.2568
새엄마	-13.2568
보미	-13.2569
체어	-13.257
모여들	-13.2572
더불	-13.2572
그래	-13.2573
보관	-13.2575
▁와인	-13.2576
파괴자	-13.2578
사위	-13.2581
오갈	-13.2581
명화	-13.2584
저세상	-13.2584
중반	-13.2585
피살	-13.2586
야마다	-13.2588
장장	-13.2589
단꿈	-13.259
자파	-13.2592
현아	-13.2594
도전장	-13.2596
아싸	-13.2597
던져	-13.2599
소년단	-13.2599
▁LI	-13.2599
해간다	-13.2601
지나치	-13.2604
추격자	-13.2604
폐가	-13.2605
일터	-13.261
매기	-13.2615
일식	-13.2622
외톨이	-13.2624
원장	-13.2628
감수	-13.2632
준일	-13.264
부보	-13.265
시리	-13.2658
괴기	-13.2662
주작	-13.2664
직장인	-13.2666
바라기	-13.2669
▁붙	-13.2672
시시	-13.2672
독고	-13.2673
사물	-13.2673
위중	-13.2677
통로	-13.2681
도울	-13.2687
산길	-13.2688
벽지	-13.2692
시집	-13.2708
제리	-13.2722
연지	-13.2722
사마	-13.2722
이끈	-13.2722
코어	-13.2729
해준	-13.2732
▁거스	-13.2739
음성	-13.2739
인삼	-13.2745
고골	-13.2752
빌리지	-13.2758
안부	-13.2761
치원	-13.2765
태생	-13.2771
아역	-13.2775
아임	-13.2778
▁48	-13.2778
은가요	-13.2781
신중	-13.2789
인디	-13.279
대차	-13.2792
보편	-13.2794
분방	-13.2797
전무	-13.2807
신세계	-13.2811
내건	-13.2818
장애인	-13.2821
▁쫓겨난	-13.2821
▁들이닥친	-13.2821
▁싸운	-13.2823
▁돌아간	-13.2825
날개	-13.2829
원보	-13.2837
▁붙잡	-13.2839
전진	-13.2841
전남편	-13.2843
라야	-13.2849
물리학	-13.2856
스나	-13.2857
포고	-13.2858
에리얼	-13.286
▁벌인	-13.2861
▁줄리아	-13.2871
대세	-13.2874
우기	-13.2877
성미	-13.2879
로울	-13.2879
극도	-13.2887
원대	-13.2889
▁캐롤	-13.2891
▁열린	-13.2893
▁제프	-13.2904
▁홉	-13.2905
▁토니	-13.2908
▁크리스토	-13.2911
▁스즈	-13.2911
▁돌아올	-13.2911
게토	-13.2912
▁드래	-13.2912
▁카르	-13.2915
▁키드	-13.2915
▁마키	-13.2919
▁조심	-13.2919
▁채드	-13.2926
영기	-13.2929
후후	-13.2937
지디	-13.2948
인회	-13.2952
가꾸	-13.296
실종자	-13.2963
▁일기	-13.2963
상해	-13.2963
▁로빈	-13.297
▁헌	-13.2998
인구	-13.3007
스코	-13.3013
정년	-13.3014
추가	-13.3018
노아	-13.3025
도맡	-13.303
고쳐	-13.3033
잔고	-13.3033
수저	-13.3037
용지	-13.3038
싸가	-13.3048
▁NO	-13.3063
▁반한	-13.3076
주제	-13.3077
피도	-13.3083
트레	-13.3087
격분	-13.3088
만니	-13.309
전화기	-13.3092
▁시오	-13.3097
동의	-13.3138
초인	-13.3157
적진	-13.316
베가	-13.3161
성선	-13.3161
유다	-13.318
중단	-13.318
집시	-13.3184
조던	-13.3185
이터널	-13.32
자크	-13.3203
해상	-13.3213
▁다크	-13.3215
준다고	-13.3229
마나	-13.3235
도유	-13.3242
▁나나	-13.3242
비아	-13.325
화자	-13.3254
한글	-13.3254
여사	-13.3272
스산	-13.3274
존기	-13.3276
▁에드	-13.331
선다	-13.331
재기	-13.3313
호산	-13.3326
떠돌이	-13.3357
산적	-13.3361
안보	-13.3409
우한	-13.3414
미로	-13.3425
금분	-13.3436
달리기	-13.3441
아진	-13.3444
은희	-13.3473
두원	-13.3504
기피	-13.3514
하녀	-13.3517
도발	-13.3545
고장난	-13.3571
음산	-13.3579
형수	-13.3596
원자	-13.3653
가영	-13.3661
함양	-13.3671
한결	-13.3672
"	-13.3702
들러	-13.3708
안주	-13.371
승부사	-13.3716
여행자	-13.3734
만세	-13.3746
말살	-13.3756
전말	-13.3794
▁할지	-13.3798
왕년	-13.3808
▁SHI	-13.3816
달인	-13.3848
전할	-13.3856
파리아	-13.3876
량	-13.3945
안기	-13.3947
비웃	-13.3973
개기	-13.3977
다방	-13.3989
제조	-13.3991
싱	-13.3994
유고	-13.4027
진통	-13.4037
다발	-13.405
기동	-13.4065
틀리	-13.4083
기미	-13.4102
하린	-13.4106
대적	-13.4194
침	-13.4196
례	-13.4227
아님	-13.4228
톤	-13.4244
렇	-13.4245
뱃	-13.4249
합법	-13.4255
협조	-13.4255
스트리트	-13.4256
랫	-13.4257
노랫	-13.4259
뛰쳐나	-13.4259
약탈	-13.4259
부럽	-13.426
▁BE	-13.426
ent	-13.4261
OVI	-13.4261
어설프	-13.4261
혈액	-13.4261
mus	-13.4261
어루만지	-13.4261
올려다보	-13.4261
▁EX	-13.4261
par	-13.4261
둘러보	-13.4261
속삭이	-13.4261
물러나	-13.4261
her	-13.4261
ir	-13.4261
낭독	-13.4261
떠밀리	-13.4261
▁You	-13.4261
망망	-13.4262
따돌리	-13.4262
몰아가	-13.4262
스며들	-13.4262
삽입	-13.4262
택트	-13.4262
노벨	-13.4262
종업	-13.4262
틀어지	-13.4262
탐방	-13.4262
황혼	-13.4262
쇼핑	-13.4262
카락	-13.4262
근육	-13.4262
휘몰아치	-13.4262
스톱	-13.4263
금융	-13.4263
서두르	-13.4263
동갑	-13.4263
짓누르	-13.4263
박람	-13.4263
복종	-13.4263
휴전	-13.4263
공학	-13.4264
으시	-13.4264
드럼	-13.4264
억누르	-13.4264
▁159	-13.4264
조롱	-13.4264
▁..?	-13.4264
▁47	-13.4265
뽑히	-13.4265
밀려오	-13.4266
극악	-13.4266
세례	-13.4267
무궁	-13.4269
테마	-13.4269
오모리	-13.4269
불청	-13.4271
불평	-13.4272
OW	-13.4272
맞춤	-13.4273
연회	-13.4276
구경	-13.4278
놀리	-13.428
폐기	-13.4281
여겨	-13.4281
갱생	-13.4281
원예	-13.4282
동상	-13.4283
공소	-13.4286
밥상	-13.429
천문	-13.4292
정거	-13.4294
타이거	-13.4294
놀음	-13.4294
감미	-13.4295
피난	-13.4296
우등	-13.4296
대변	-13.4297
네임	-13.4298
무정부	-13.43
허리	-13.43
고장나	-13.4308
43	-13.4308
유전	-13.4316
조각나	-13.4319
레이더	-13.4324
나귀	-13.4326
다락	-13.4327
옥수	-13.4328
오행	-13.433
풀려	-13.4331
백두	-13.4331
보급	-13.4337
대만	-13.4339
내쉬	-13.4339
방화	-13.4346
미세	-13.4349
일래	-13.437
카오	-13.4383
권하	-13.4387
깨진	-13.4402
정비	-13.4406
일깨우	-13.4416
천장	-13.4421
안무	-13.4428
피시	-13.4434
피리	-13.4435
공수	-13.4437
전교	-13.446
몰려들	-13.4462
모사	-13.4464
끊어	-13.4504
하영	-13.4505
여관	-13.4536
서부	-13.4537
장서	-13.454
따라오	-13.4552
자재	-13.4566
구나	-13.4569
여신	-13.4571
살피	-13.4588
▁MY	-13.4598
한강	-13.4644
24	-13.4658
표하	-13.4692
환하	-13.4694
싸이	-13.4707
여와	-13.4707
명한다	-13.4736
야코	-13.4757
▁188	-13.4785
노선	-13.4792
속해	-13.4825
고든	-13.4829
불사	-13.484
든가	-13.4856
ic	-13.4857
소은	-13.4941
올가	-13.4958
국악	-13.4968
부추	-13.4978
한판	-13.498
단속	-13.4999
일주	-13.5
비기	-13.5074
회고	-13.5129
된다면	-13.514
해전	-13.514
가공	-13.523
라면서	-13.5401
호에	-13.5403
토하	-13.5421
운하	-13.5492
사인	-13.553
건다	-13.5538
한동안	-13.5569
NK	-13.5674
기거	-13.5699
한심	-13.5714
te	-13.5722
자며	-13.5746
부를	-13.5823
말년	-13.5861
과제	-13.5926
화분	-13.602
u	-13.6053
적시	-13.6061
ER	-13.608
비평	-13.6082
▁Be	-13.6178
선도	-13.6194
’	-13.6204
제어	-13.6205
st	-13.6212
▁Dr	-13.6255
STA	-13.6409
커녕	-13.6444
et	-13.6482
륙	-13.6507
끌려	-13.6542
덴	-13.6573
겐	-13.6594
품격	-13.6605
습	-13.661
nd	-13.6662
퇴	-13.6663
살아난	-13.6688
렉	-13.6691
램	-13.67
디언	-13.6703
딜	-13.6707
빠	-13.6711
덮	-13.6712
쿄	-13.6713
으라	-13.6715
머니	-13.6715
힌	-13.6715
ry	-13.6723
변함없	-13.6725
뭔	-13.6729
평론	-13.674
리바이	-13.674
깊숙	-13.6742
질까	-13.6745
첩	-13.6746
틸	-13.6747
펼쳐진	-13.6749
셔	-13.6751
부딪힌	-13.6751
녕	-13.6751
달아난	-13.6751
프스	-13.6751
알아차린	-13.6752
일으킨	-13.6752
액	-13.6752
뒤집힌	-13.6752
맡겨진	-13.6753
백악	-13.6753
데려온	-13.6754
쾌	-13.6754
혔	-13.6754
퍼진	-13.6754
멋대로	-13.6755
듀	-13.6756
지질학	-13.6756
께	-13.6757
강점	-13.6758
헨	-13.6758
미스테리	-13.6758
랍	-13.6758
측	-13.6758
샹	-13.6759
노숙	-13.6759
토피아	-13.6759
뱅	-13.6759
청평	-13.6759
즘	-13.676
송신	-13.676
미제라블	-13.676
앵	-13.676
크리스티	-13.676
유례	-13.676
깜	-13.6761
벼	-13.6761
달라져	-13.6761
몸부림	-13.6761
아수라	-13.6761
아닐까	-13.6761
인민군	-13.6761
그럴수록	-13.6761
사생결단	-13.6761
소매치기	-13.6761
유아독존	-13.6761
플렉	-13.6761
도널드	-13.6761
첩첩산중	-13.6761
감춰져	-13.6761
놓쳐버린	-13.6761
동북아시아	-13.6761
동호회	-13.6761
취사반장	-13.6761
펼쳐집니다	-13.6761
활기찬	-13.6761
반가움	-13.6761
향신료	-13.6761
모니터	-13.6761
스펙터	-13.6761
치러진	-13.6761
분실물	-13.6761
서글픈	-13.6761
기네스	-13.6761
교향악단	-13.6761
뒷바라지	-13.6761
백과사전	-13.6761
백발백중	-13.6761
부서졌	-13.6761
부작용	-13.6761
불협화음	-13.6761
숨가쁜	-13.6761
숨바꼭	-13.6761
시행착오	-13.6761
욕쟁이	-13.6761
중앙정보부	-13.6761
즐거웠	-13.6761
다가설수록	-13.6761
물거품	-13.6761
부조리	-13.6761
아랫집	-13.6761
인신매매	-13.6761
존엄	-13.6761
치사율	-13.6761
카운트	-13.6761
피조물	-13.6761
대외비	-13.6761
ppin	-13.6761
▁FILM	-13.6761
▁Season	-13.6761
가져다주	-13.6761
갈릴레오	-13.6761
값비싼	-13.6761
강동구	-13.6761
거슈윈	-13.6761
거트루드	-13.6761
건드렸	-13.6761
고집불통	-13.6761
권도훈	-13.6761
권상우	-13.6761
귀네비어	-13.6761
귀요미	-13.6761
김래원	-13.6761
김련희	-13.6761
김복동	-13.6761
김서형	-13.6761
김창열	-13.6761
김화진	-13.6761
꾸준히	-13.6761
끓어오르	-13.6761
나베시마	-13.6761
나츠코	-13.6761
내슈빌	-13.6761
내팽개치	-13.6761
네트워크	-13.6761
노보루	-13.6761
노스우드	-13.6761
노트르담	-13.6761
노회찬	-13.6761
니혼바시	-13.6761
달라졌	-13.6761
돌려놓	-13.6761
동분서주	-13.6761
두근거리	-13.6761
뒤집어쓴	-13.6761
드뇌브	-13.6761
드러머	-13.6761
디스패치	-13.6761
딱정벌레	-13.6761
똑똑똑	-13.6761
똑똑히	-13.6761
뚝딱뚝딱	-13.6761
라스베가스	-13.6761
라플란드	-13.6761
람보르기니	-13.6761
럭셔리	-13.6761
레닌그라드	-13.6761
레바논	-13.6761
레이놀즈	-13.6761
레전더리	-13.6761
레즈비언	-13.6761
로슈포르	-13.6761
로스앤젤레스	-13.6761
롤라팔루자	-13.6761
루슬란	-13.6761
류준열	-13.6761
류현경	-13.6761
리얼리즘	-13.6761
리얼리티	-13.6761
리허설	-13.6761
마거릿	-13.6761
마드리갈	-13.6761
마츠오카	-13.6761
마코토	-13.6761
말랑말랑	-13.6761
맥그리거	-13.6761
맥시멀	-13.6761
맥페이든	-13.6761
맨해튼	-13.6761
머스크	-13.6761
머큐리	-13.6761
멸문지화	-13.6761
모리꼬네	-13.6761
모먼트	-13.6761
모빌리티	-13.6761
무거운	-13.6761
무용지물	-13.6761
뮤지엄	-13.6761
미켈슨	-13.6761
민윤기	-13.6761
바렌보임	-13.6761
바우하우스	-13.6761
바티스타	-13.6761
박기헌	-13.6761
박성웅	-13.6761
박종환	-13.6761
박평호	-13.6761
박혁권	-13.6761
반짝거리	-13.6761
반짝반짝	-13.6761
발데즈	-13.6761
방글라데시	-13.6761
베아트리체	-13.6761
베이커리	-13.6761
베토벤	-13.6761
보디가드	-13.6761
보살핀다	-13.6761
보스토크	-13.6761
보잘것없	-13.6761
볼리비아	-13.6761
부디카	-13.6761
브라인드	-13.6761
브레이커	-13.6761
브렌다	-13.6761
브루클린	-13.6761
블랑코	-13.6761
블러드	-13.6761
블러즈	-13.6761
블레싱	-13.6761
비노쉬	-13.6761
비틀즈	-13.6761
빚쟁이	-13.6761
뼈저리	-13.6761
사츠키	-13.6761
사쿠라지마	-13.6761
산티아고	-13.6761
삼장법사	-13.6761
삼켜버릴	-13.6761
샌드백	-13.6761
샹크스	-13.6761
서투른	-13.6761
세베크	-13.6761
소렌슨	-13.6761
소세키	-13.6761
소지섭	-13.6761
속삭임	-13.6761
솔베르그	-13.6761
수플레	-13.6761
슈트라우스	-13.6761
슈헤이	-13.6761
스워드	-13.6761
스윈튼	-13.6761
스카르피	-13.6761
스칼렛	-13.6761
스토킹	-13.6761
스튜어트	-13.6761
스파르타	-13.6761
스펙타클	-13.6761
스펙트럼	-13.6761
스폰서	-13.6761
스프링스	-13.6761
스피노자	-13.6761
슬라브	-13.6761
시끌벅적	-13.6761
시시콜콜	-13.6761
시애틀	-13.6761
시타델	-13.6761
아르헨티나	-13.6761
아리아드네	-13.6761
아메리칸	-13.6761
아멜리아	-13.6761
아뿔싸	-13.6761
아쉬움	-13.6761
아스테릭스	-13.6761
아이슬란드	-13.6761
아이언스	-13.6761
아치볼드	-13.6761
아틸라	-13.6761
아폴로니아	-13.6761
아흐메트	-13.6761
알렉산드라	-13.6761
알록달록	-13.6761
알샤바브	-13.6761
알콩달콩	-13.6761
앙드레	-13.6761
앙상블	-13.6761
앙코르	-13.6761
애지중지	-13.6761
애프터	-13.6761
앨버트	-13.6761
어리둥절	-13.6761
어메이징	-13.6761
어지러운	-13.6761
어트랙션	-13.6761
에두아르트	-13.6761
에드먼드	-13.6761
에이펙스	-13.6761
에티오피아	-13.6761
엘로이즈	-13.6761
엘비라	-13.6761
영춘권	-13.6761
오디세우스	-13.6761
오트밀	-13.6761
오파츠	-13.6761
오프닝	-13.6761
옥스포드	-13.6761
올레크	-13.6761
옵티머스	-13.6761
와인스타인	-13.6761
요르문간드	-13.6761
요보비치	-13.6761
요시오카	-13.6761
요시토	-13.6761
요츠바	-13.6761
운디네	-13.6761
워너비	-13.6761
워싱턴	-13.6761
웨이크필드	-13.6761
윌리암스	-13.6761
유니콘	-13.6761
유메코	-13.6761
유세윤	-13.6761
이스마엘	-13.6761
이스트우드	-13.6761
익스트림	-13.6761
인도네시아	-13.6761
일러스트레이터	-13.6761
임달화	-13.6761
임진희	-13.6761
잉글랜드	-13.6761
잉글리시	-13.6761
자메이카	-13.6761
잘츠부르크	-13.6761
저스틴	-13.6761
제너레이션	-13.6761
조반니	-13.6761
조슬린	-13.6761
조심스레	-13.6761
조진웅	-13.6761
죽마고우	-13.6761
쥬만지	-13.6761
질렌할	-13.6761
집어삼킨	-13.6761
짝달싹	-13.6761
차스테인	-13.6761
차이나타운	-13.6761
천방지축	-13.6761
추스르	-13.6761
츠요시	-13.6761
치어리딩	-13.6761
카디르	-13.6761
카메론	-13.6761
카미노	-13.6761
카자흐스탄	-13.6761
카투사	-13.6761
카트야	-13.6761
캐리비안	-13.6761
캔드릭	-13.6761
캠페인	-13.6761
컨퍼런스	-13.6761
컬렉션	-13.6761
케네디	-13.6761
케플러	-13.6761
콤플렉스	-13.6761
쿄고쿠	-13.6761
쿠릴렌코	-13.6761
쿠엔틴	-13.6761
크립톤	-13.6761
클라렌스	-13.6761
클라우드	-13.6761
클라이맥스	-13.6761
클라이버	-13.6761
클라크	-13.6761
키르기스스탄	-13.6761
킬리만자로	-13.6761
킬리언	-13.6761
타케루	-13.6761
탄크레디	-13.6761
터미널	-13.6761
테일즈	-13.6761
토마소	-13.6761
투그룰	-13.6761
투리스모	-13.6761
트랜스젠더	-13.6761
트랜스포머	-13.6761
트럼펫	-13.6761
트럼프	-13.6761
티라노	-13.6761
티라노사우루스	-13.6761
파르티아	-13.6761
파묻힌	-13.6761
파바로티	-13.6761
파비안느	-13.6761
팔레스타인	-13.6761
패러다임	-13.6761
퍼시벌	-13.6761
펠릭스	-13.6761
포워드	-13.6761
푸치니	-13.6761
프라임	-13.6761
프란시스	-13.6761
프란치스코	-13.6761
프랑켄슈타인	-13.6761
프랑크	-13.6761
프랭클린	-13.6761
프레데리크	-13.6761
프로페셔널	-13.6761
프린세스	-13.6761
프린스	-13.6761
플라스틱	-13.6761
플라우투스	-13.6761
피델리오	-13.6761
피에트로	-13.6761
해밀턴	-13.6761
허황옥	-13.6761
헤밍웨이	-13.6761
호킨스	-13.6761
후쿠오카	-13.6761
휘파람	-13.6761
히카리	-13.6761
히포크라테스	-13.6761
가파른	-13.6761
그레빌	-13.6761
김남길	-13.6761
나쓰메	-13.6761
나츠미	-13.6761
돌려보내	-13.6761
라미란	-13.6761
리벤지	-13.6761
모성애	-13.6761
무방비	-13.6761
비비카	-13.6761
슈퍼플라이	-13.6761
스자쿠	-13.6761
시그널	-13.6761
시라노	-13.6761
아드리아나	-13.6761
아사쿠사	-13.6761
알폰소	-13.6761
에머슨	-13.6761
왈왈	-13.6761
요코하마	-13.6761
유재명	-13.6761
이가라시	-13.6761
이선균	-13.6761
정태춘	-13.6761
카디자	-13.6761
탄원서	-13.6761
파울리나	-13.6761
포인트	-13.6761
피날레	-13.6761
나루세	-13.6761
달라요	-13.6761
도미닉	-13.6761
쉽사리	-13.6761
아이러니	-13.6761
액터스	-13.6761
야니스	-13.6761
언더그라운드	-13.6761
에스엠	-13.6761
은행털이	-13.6761
이스탄불	-13.6761
적반하장	-13.6761
제네바	-13.6761
카지노	-13.6761
컬링	-13.6761
팔로군	-13.6761
하얼빈	-13.6761
김대명	-13.6761
대단히	-13.6761
러시안	-13.6761
맥켄지	-13.6761
물러날	-13.6761
실랑이	-13.6761
알비노	-13.6761
앵거스	-13.6761
엔니오	-13.6761
이소룡	-13.6761
주방장	-13.6761
코리안	-13.6761
크리스티앙	-13.6761
겉보기	-13.6761
끌어올리	-13.6761
나비효과	-13.6761
남달랐	-13.6761
무너질	-13.6761
무로마치	-13.6761
버려져	-13.6761
부딪친다	-13.6761
부추긴다	-13.6761
붙박이	-13.6761
빠트릴	-13.6761
속삭인다	-13.6761
슐츠	-13.6761
아름다워	-13.6761
야사카	-13.6761
얼간이	-13.6761
임진왜란	-13.6761
쫓아다니	-13.6761
창시자	-13.6761
천진난만	-13.6761
터뜨리	-13.6761
퍼뜨리	-13.6761
퍼뜨린	-13.6761
퍼트린	-13.6761
하염없이	-13.6761
휴대폰	-13.6761
흐를수록	-13.6761
간판장이	-13.6761
끌어안	-13.6761
난치병	-13.6761
내리막길	-13.6761
눈엣가시	-13.6761
메세지	-13.6761
바네사	-13.6761
올리비에	-13.6761
울지마	-13.6761
이츠키	-13.6761
임지호	-13.6761
조나스	-13.6761
지워져	-13.6761
고달픈	-13.6761
따윈	-13.6761
미워하	-13.6761
베트콩	-13.6761
으리라	-13.6761
전업주부	-13.6761
지부티	-13.6761
튀어나오	-13.6761
파라오	-13.6761
호스피스	-13.6761
ACK	-13.6761
거둔다	-13.6761
바느질	-13.6761
방아쇠	-13.6761
부리부리	-13.6761
사면장	-13.6761
의기소침	-13.6761
낯익	-13.6761
들이닥쳐	-13.6761
들이닥칠	-13.6761
떠올랐	-13.6761
뛰어내린	-13.6761
망연자실	-13.6761
발렌타인	-13.6761
보테로	-13.6761
부딪혀	-13.6761
불쑥불쑥	-13.6761
세일즈맨	-13.6761
예배당	-13.6761
이천희	-13.6761
즉흥	-13.6761
통행증	-13.6761
펠리칸	-13.6761
항공우주국	-13.6761
헤엄쳐	-13.6761
휩쓸려	-13.6761
고깃집	-13.6761
불면증	-13.6761
채무자	-13.6761
넘어온	-13.6761
덤블	-13.6761
모티브	-13.6761
세르비	-13.6761
세인트	-13.6761
스트릿	-13.6761
의붓딸	-13.6761
익힌	-13.6761
olo	-13.6761
가져올	-13.6761
깜찍	-13.6761
모가미	-13.6761
물음표	-13.6761
싱클레어	-13.6761
퇴각	-13.6761
한효주	-13.6761
헤이리	-13.6761
게오르크	-13.6761
골동품	-13.6761
구사일생	-13.6761
메시아	-13.6761
사무엘	-13.6761
아레사	-13.6761
애비게일	-13.6761
앵글	-13.6761
요시다	-13.6761
정진운	-13.6761
줄어드	-13.6761
헤엄치	-13.6761
휴머	-13.6761
덴마크	-13.6761
변두리	-13.6761
불어난	-13.6761
성직자	-13.6761
우크라이나	-13.6761
전주국	-13.6761
흡혈	-13.6761
감춰왔	-13.6761
고추장	-13.6761
두오모	-13.6761
오태경	-13.6761
퍼트리	-13.6761
홀로도모르	-13.6761
괴롭혔	-13.6761
레오노라	-13.6761
리니어	-13.6761
상납금	-13.6761
즉각	-13.6761
OH	-13.6761
녹록	-13.6761
떠올라	-13.6761
롤링	-13.6761
붙인다	-13.6761
시그네	-13.6761
알아챈다	-13.6761
풍덩	-13.6761
라오스	-13.6761
잊어버리	-13.6761
초년생	-13.6761
미도리	-13.6761
손기정	-13.6761
슬롯	-13.6761
월하노인	-13.6761
익혀	-13.6761
피오나	-13.6761
덧칠	-13.6761
되돌려	-13.6761
마르쿠스	-13.6761
일어설	-13.6761
찾아낼	-13.6761
트리플	-13.6761
피부색	-13.6761
떠돌아다니	-13.6761
미스피츠	-13.6761
타고났	-13.6761
테이블	-13.6761
기네스북	-13.6761
몽환	-13.6761
인터폴	-13.6761
전당포	-13.6761
쫓아온	-13.6761
토자와	-13.6761
골칫거리	-13.6761
균형	-13.6761
빙하기	-13.6761
아비브	-13.6761
피아차	-13.6761
대장장이	-13.6761
스틸먼	-13.6761
칭찬	-13.6761
트랙터	-13.6761
트루먼	-13.6761
폭언	-13.6761
구석구석	-13.6761
산악자전거	-13.6761
신붓감	-13.6761
싱즈	-13.6761
동양인	-13.6761
매서운	-13.6761
타이밍	-13.6761
나일스	-13.6761
다비드	-13.6761
뒷골목	-13.6761
비둘기	-13.6761
멜리사	-13.6761
원더랜드	-13.6761
포획	-13.6761
op	-13.6761
뇌종양	-13.6761
통찰력	-13.6761
닫힌	-13.6761
쇼핑몰	-13.6761
응접실	-13.6761
보트닉	-13.6761
불러일으킬	-13.6761
정확히	-13.6761
하야토	-13.6761
랙스	-13.6761
레스큐	-13.6761
미츠코	-13.6761
박스오피스	-13.6761
살려낼	-13.6761
엠티	-13.6761
교섭	-13.6761
도서관	-13.6761
뿌린	-13.6761
메텔	-13.6761
스쿨버스	-13.6761
아쿠아	-13.6761
이정재	-13.6761
탄탄대로	-13.6761
폭포	-13.6761
불어온	-13.6761
엑스레이	-13.6761
말아먹	-13.6762
아르잔	-13.6762
자서전	-13.6762
급식소	-13.6762
들려온다	-13.6762
오자서	-13.6762
줄줄이	-13.6762
친일파	-13.6762
쿠로다	-13.6762
가려진	-13.6762
동석	-13.6762
매춘부	-13.6762
촌구석	-13.6762
▁No	-13.6762
본보기	-13.6762
블라디	-13.6762
밀리터리	-13.6762
외로울	-13.6762
사마귀	-13.6762
와이파이	-13.6762
클루니	-13.6762
까치발	-13.6762
깨어날	-13.6762
색슨	-13.6762
의무병	-13.6762
군의관	-13.6762
까닭	-13.6762
루아나	-13.6762
방위군	-13.6762
에즈라	-13.6762
한센인	-13.6762
고질라	-13.6762
꼬리표	-13.6762
라인업	-13.6762
송새벽	-13.6762
으론	-13.6762
동학란	-13.6762
셰르	-13.6762
합의금	-13.6762
▁Wo	-13.6762
스케치	-13.6762
플라잉	-13.6762
하반신	-13.6762
학도병	-13.6762
찔려	-13.6762
▁An	-13.6762
남겨질	-13.6762
전환점	-13.6762
탈퇴	-13.6762
금메달리스트	-13.6762
캠퍼스	-13.6762
코세이	-13.6762
럭시	-13.6762
협업	-13.6762
다행히	-13.6762
미스틱	-13.6762
젝시	-13.6762
케이티	-13.6762
청첩장	-13.6762
김장하	-13.6762
열등감	-13.6762
탈영병	-13.6762
불러들인다	-13.6762
출현	-13.6762
축융	-13.6762
크리스토퍼	-13.6762
투숙	-13.6762
나아간다	-13.6762
이카리	-13.6762
풋볼	-13.6762
헤롯	-13.6762
위원회	-13.6762
협곡	-13.6762
낭트	-13.6762
삽질	-13.6762
왈드	-13.6762
짜장면	-13.6762
찾아올	-13.6762
최적화	-13.6762
망쳤	-13.6762
처참히	-13.6762
충분히	-13.6762
파텔	-13.6762
불어오	-13.6762
손꼽히	-13.6762
추측	-13.6762
폐기물	-13.6762
야요이	-13.6762
따르릉	-13.6762
백악관	-13.6762
여객선	-13.6762
충직	-13.6762
향연	-13.6762
후원금	-13.6762
한가운데서	-13.6762
겉돌	-13.6762
고물상	-13.6762
뒤집혔	-13.6762
좋아했	-13.6762
주니어	-13.6762
겨레	-13.6762
송출	-13.6762
감옥살이	-13.6762
뇌세포	-13.6762
터닝	-13.6762
불어나	-13.6762
프랫	-13.6762
네이선	-13.6762
들통나	-13.6762
이주노	-13.6762
국방군	-13.6762
도굴꾼	-13.6762
캐스터	-13.6762
식힐	-13.6762
야스에	-13.6762
한약방	-13.6762
도적질	-13.6762
발버둥	-13.6762
마일로	-13.6762
빨래	-13.6762
어긋난	-13.6762
황태수	-13.6762
남겨준	-13.6762
추축국	-13.6762
오대수	-13.6762
도어맨	-13.6762
부담감	-13.6762
삼합회	-13.6762
오로치	-13.6762
고속버스	-13.6762
교훈	-13.6762
난데없	-13.6762
워즈	-13.6762
던져진	-13.6762
링컨	-13.6762
에스더	-13.6762
빅딜	-13.6762
한사코	-13.6762
쓰인다	-13.6762
엘르	-13.6762
가만히	-13.6762
경환	-13.6762
▁YOUR	-13.6762
김정남	-13.6762
몰골	-13.6762
인내심	-13.6762
케톨	-13.6762
헤어졌	-13.6762
몰아친	-13.6762
송강호	-13.6762
쇠락	-13.6762
탐문	-13.6762
식탁	-13.6762
트레저	-13.6762
락다운	-13.6762
찌르	-13.6762
로빈슨	-13.6762
쥬드	-13.6762
토리노	-13.6762
허드렛일	-13.6762
게오르그	-13.6762
튀르	-13.6762
곡예사	-13.6762
자그마	-13.6762
울렸	-13.6762
브레이크	-13.6762
수식어	-13.6762
카이저	-13.6762
나타샤	-13.6762
정확	-13.6762
이리네	-13.6762
취득	-13.6762
구세주	-13.6762
사명감	-13.6763
엔드게임	-13.6763
정략결혼	-13.6763
두더지	-13.6763
매칭	-13.6763
퇴원	-13.6763
보관소	-13.6763
플롯	-13.6763
들여야	-13.6763
보육원	-13.6763
리이치	-13.6763
집행관	-13.6763
합체	-13.6763
샤오미	-13.6763
크리스티안	-13.6763
식솔	-13.6763
새까만	-13.6763
유모차	-13.6763
자책감	-13.6763
추앙	-13.6763
폭정	-13.6763
눈치챈	-13.6763
노송	-13.6763
히로시마	-13.6763
이즈미	-13.6763
프레야	-13.6763
다독이	-13.6763
잔심부름	-13.6763
나아갈	-13.6763
em	-13.6763
▁Me	-13.6763
굴레	-13.6763
레오니	-13.6763
배꼽	-13.6763
경숙	-13.6763
묘약	-13.6763
례단	-13.6763
요한슨	-13.6763
국방부	-13.6763
콜트레인	-13.6763
버니스	-13.6763
티베트	-13.6763
금메달	-13.6763
맹공격	-13.6763
포맷	-13.6763
뉴타운	-13.6763
부름	-13.6763
써내려	-13.6763
기상학	-13.6763
수송차	-13.6763
입시생	-13.6763
환혼	-13.6763
스코티	-13.6763
요코타	-13.6763
터졌	-13.6763
블링	-13.6763
꾸며진	-13.6763
이끌린	-13.6763
케냐	-13.6763
샤오진	-13.6763
피비린내	-13.6763
게이머	-13.6763
이승윤	-13.6763
그려낸다	-13.6763
교묘	-13.6763
배고픈	-13.6763
이어령	-13.6763
인조인간	-13.6763
큐브	-13.6763
외설	-13.6763
운항	-13.6763
몬데	-13.6763
쇠약	-13.6763
물리칠	-13.6763
스즈메	-13.6763
벌레	-13.6763
블링크	-13.6763
유겐	-13.6763
토요일	-13.6763
마르트	-13.6763
하시마	-13.6763
석궁	-13.6763
샤워	-13.6763
콜리아	-13.6763
으신	-13.6763
독수리	-13.6763
라이더	-13.6763
놀랄	-13.6763
초토화	-13.6763
돌아올까	-13.6763
피치스	-13.6763
칠흑	-13.6763
통찰	-13.6763
투병	-13.6763
펠리	-13.6763
드라마틱	-13.6763
작업반장	-13.6763
플렉스	-13.6763
피고인	-13.6763
브라크	-13.6763
데비키	-13.6763
현옥	-13.6763
춘추	-13.6763
이동휘	-13.6763
패션쇼	-13.6763
변심	-13.6763
매달린	-13.6763
실래요	-13.6764
목요일	-13.6764
오토봇	-13.6764
교포	-13.6764
불러들이	-13.6764
사만다	-13.6764
급상승	-13.6764
그래야	-13.6764
흑마술	-13.6764
피랍	-13.6764
김세희	-13.6764
달려본	-13.6764
다이얼	-13.6764
에디슨	-13.6764
탈리스	-13.6764
의료진	-13.6764
커튼	-13.6764
출국	-13.6764
마리안느	-13.6764
마리엠	-13.6764
신이치	-13.6764
종욱	-13.6764
괴로움	-13.6764
누린다	-13.6764
크리스토프	-13.6764
즐비	-13.6764
스쳐간	-13.6764
잠재우	-13.6764
디아스	-13.6764
기러기	-13.6764
보석상	-13.6764
악셀	-13.6764
에이블	-13.6764
미스테리오	-13.6764
슈조	-13.6764
카즈오	-13.6764
대피소	-13.6764
크리스탈	-13.6764
업데이트	-13.6764
동독	-13.6764
박정희	-13.6764
와이프	-13.6764
경희	-13.6764
뮤츠	-13.6764
이뤄낸	-13.6764
조명석	-13.6764
충실	-13.6764
김고은	-13.6764
미나리	-13.6764
셰리	-13.6764
신앙심	-13.6764
앙리	-13.6764
싸워라	-13.6764
이곳저곳	-13.6764
결론	-13.6764
끼니	-13.6764
자유분방	-13.6764
피에로	-13.6764
연립	-13.6764
쫓겨	-13.6764
경백	-13.6764
시에나	-13.6764
발트해	-13.6764
버클리	-13.6764
카리브해	-13.6764
부여받	-13.6764
카산드라	-13.6764
지리산	-13.6764
토익	-13.6764
동아시아	-13.6765
상흔	-13.6765
이사벨	-13.6765
닐손	-13.6765
레논	-13.6765
방침	-13.6765
테두리	-13.6765
출정	-13.6765
하수구	-13.6765
서툴러	-13.6765
팬덤	-13.6765
서태지	-13.6765
재결합	-13.6765
디에고	-13.6765
틸다	-13.6765
정유미	-13.6765
몽크	-13.6765
깔려	-13.6765
묵언	-13.6765
▁206	-13.6765
관능	-13.6765
연합국	-13.6765
공짜	-13.6765
세레나	-13.6765
넘쳐나	-13.6765
발레리나	-13.6765
폴리나	-13.6765
으니까	-13.6765
료마	-13.6765
▁203	-13.6765
뼈아픈	-13.6765
총잡이	-13.6765
혼령	-13.6765
밀접	-13.6765
냉대	-13.6765
캣츠	-13.6765
리아드	-13.6765
임윤아	-13.6765
완결	-13.6765
암투	-13.6765
밀림	-13.6765
마흔	-13.6765
나고야	-13.6765
맹목	-13.6765
평탄	-13.6765
절규	-13.6765
최전방	-13.6765
케일라	-13.6765
아우라	-13.6765
배워야	-13.6765
헤어질	-13.6765
토모야	-13.6765
베르네	-13.6765
귀걸이	-13.6765
카일라	-13.6765
메모리	-13.6765
황무지	-13.6765
국밥	-13.6765
통합	-13.6765
제국주의	-13.6765
추운	-13.6765
버겁	-13.6766
추출	-13.6766
선량	-13.6766
책임감	-13.6766
제빵사	-13.6766
승무	-13.6766
드라곤	-13.6766
민규	-13.6766
보호관찰	-13.6766
숙박	-13.6766
크레인	-13.6766
크리스마스이브	-13.6766
쓴맛	-13.6766
확산	-13.6766
앞서간	-13.6766
처형	-13.6766
종착	-13.6766
덩치	-13.6766
레밍	-13.6766
흥부	-13.6766
향할	-13.6766
맞붙	-13.6766
국토	-13.6766
연풍	-13.6766
현민	-13.6766
모욕	-13.6766
탈락	-13.6766
우웨이	-13.6766
광석	-13.6766
동포	-13.6766
우익	-13.6766
담벼락	-13.6766
터놓	-13.6766
친숙	-13.6766
보안법	-13.6766
혹해	-13.6766
삼엄	-13.6766
런스	-13.6766
평창	-13.6766
배닝	-13.6766
낙오	-13.6767
참맛	-13.6767
현빈	-13.6767
총력전	-13.6767
드웨인	-13.6767
첩자	-13.6767
경학	-13.6767
익명	-13.6767
배움	-13.6767
지질학자	-13.6767
청연	-13.6767
렌탈	-13.6767
히트송	-13.6767
코노스케	-13.6767
머글	-13.6767
코코넛	-13.6767
현악기	-13.6767
전과자	-13.6767
카리브	-13.6767
유흥	-13.6767
리더십	-13.6767
몰입	-13.6767
다이버	-13.6767
암울	-13.6767
육백	-13.6767
떠안	-13.6767
열렸	-13.6767
노머	-13.6767
부산포	-13.6767
작아진	-13.6767
전시회	-13.6767
트랜스	-13.6767
김규	-13.6767
조종당	-13.6767
금광	-13.6767
죄악	-13.6767
우체	-13.6767
하이츠	-13.6767
망상	-13.6768
항공편	-13.6768
느린	-13.6768
낙하산	-13.6768
미나미	-13.6768
김민재	-13.6768
불릿	-13.6768
동영상	-13.6768
재혁	-13.6768
벨트	-13.6768
젤라	-13.6768
발효	-13.6768
외지인	-13.6768
백숙	-13.6768
옥순	-13.6768
신기루	-13.6768
도리어	-13.6768
피폭	-13.6768
혼백	-13.6768
카림	-13.6768
신앙	-13.6768
용맹	-13.6768
정미소	-13.6768
파트	-13.6768
탄탄	-13.6768
승희	-13.6768
몇몇	-13.6768
심해져	-13.6768
들어갈	-13.6768
러닝	-13.6768
짱돌	-13.6768
허울	-13.6768
복권	-13.6768
박탈	-13.6768
동북	-13.6769
콜먼	-13.6769
포토	-13.6769
조력	-13.6769
부서진	-13.6769
격추	-13.6769
프레	-13.6769
돌변	-13.6769
유공자	-13.6769
포스터	-13.6769
총책임자	-13.6769
권투	-13.6769
관직	-13.6769
교도관	-13.6769
러블리	-13.6769
허당	-13.6769
공급	-13.6769
추석	-13.6769
변했	-13.6769
밀려나	-13.6769
모자란	-13.6769
칠순	-13.6769
지략	-13.6769
미유키	-13.6769
빵점	-13.6769
동민	-13.6769
포탄	-13.6769
클라이브	-13.6769
넘겨	-13.677
말동무	-13.677
동족	-13.677
재훈	-13.677
심혈	-13.677
다다른다	-13.677
마샬	-13.677
겁먹	-13.677
뒤바꿔	-13.677
연승	-13.677
플레이스	-13.677
숙명	-13.677
레인저	-13.677
정황	-13.677
국외	-13.677
불충분	-13.677
차승원	-13.677
당사자	-13.677
출시	-13.677
철벽	-13.677
욕구	-13.677
강림	-13.677
폐병	-13.677
궁극	-13.677
잔잔	-13.677
잠수정	-13.677
우라라	-13.677
금지법	-13.677
싸울	-13.677
사회봉사	-13.677
독학	-13.6771
뒤엎	-13.6771
맡겨	-13.6771
파혼	-13.6771
희곡	-13.6771
왕세자	-13.6771
민희	-13.6771
토토	-13.6771
달려야	-13.6771
맺히	-13.6771
동일본	-13.6771
메긴	-13.6771
재개봉	-13.6771
부딪힌다	-13.6771
지켜낸	-13.6771
뭔지	-13.6771
뒷면	-13.6771
달아난다	-13.6771
학문	-13.6771
슬럼가	-13.6771
노숙자	-13.6771
동파	-13.6771
텐트	-13.6771
유키나	-13.6771
청정	-13.6771
캐트	-13.6771
타비타	-13.6772
현역	-13.6772
올라서	-13.6772
질색	-13.6772
외할머니	-13.6772
유년기	-13.6772
DM	-13.6772
체크인	-13.6772
푸드	-13.6772
창업	-13.6772
그리스도인	-13.6772
빈민	-13.6772
송신기	-13.6772
소협	-13.6772
조안나	-13.6772
각시	-13.6772
공수도	-13.6772
제섭	-13.6772
묘비	-13.6772
애런	-13.6772
독차지	-13.6772
▁La	-13.6772
북간도	-13.6772
개혁	-13.6772
맞담배	-13.6772
트리나	-13.6772
프라도	-13.6772
허술	-13.6772
익사	-13.6772
닭발	-13.6772
메이저	-13.6772
연패	-13.6772
절약	-13.6772
음흉	-13.6772
커터	-13.6772
모색	-13.6773
데려온다	-13.6773
슈치	-13.6773
델피	-13.6773
손잡이	-13.6773
역전극	-13.6773
맞짱	-13.6773
저격수	-13.6773
키튼	-13.6773
조각난	-13.6773
우승현	-13.6773
물방울	-13.6773
신호등	-13.6773
생동성	-13.6773
청무	-13.6773
김밥	-13.6773
법석	-13.6773
반겨	-13.6773
순덕	-13.6773
투르	-13.6773
꼭두	-13.6773
내습	-13.6773
매즈	-13.6773
탈카	-13.6773
실버	-13.6773
깨져	-13.6773
츠카	-13.6773
투병기	-13.6774
피워	-13.6774
구급	-13.6774
장엄	-13.6774
탐한다	-13.6774
친밀	-13.6774
멀린	-13.6774
언뜻	-13.6774
뉴트	-13.6774
종류	-13.6774
스몬	-13.6774
차선우	-13.6774
소블	-13.6774
사례	-13.6774
돌린	-13.6774
전쟁고아	-13.6774
풋살	-13.6774
뱃지	-13.6774
악덕	-13.6774
안식년	-13.6774
동요	-13.6774
포구	-13.6774
무책	-13.6774
돌프	-13.6774
빼먹	-13.6774
주림	-13.6774
관점	-13.6774
생긴다면	-13.6775
규범	-13.6775
바이즈	-13.6775
동업자	-13.6775
친언니	-13.6775
질투심	-13.6775
피터팬	-13.6775
백악기	-13.6775
손재주	-13.6775
거루	-13.6775
넘쳐	-13.6775
퀸카	-13.6775
스페이스	-13.6775
가까워질	-13.6775
광란	-13.6775
강령	-13.6775
마벨	-13.6775
걸리버	-13.6775
생생히	-13.6775
원흉	-13.6775
택한다	-13.6775
예견	-13.6776
육계	-13.6776
니까요	-13.6776
돼요	-13.6776
미끼	-13.6776
비련	-13.6776
나름	-13.6776
급류	-13.6776
패트	-13.6776
체르	-13.6776
야모토	-13.6776
몸값	-13.6776
승우	-13.6776
몰라도	-13.6776
보유자	-13.6776
장피에르	-13.6776
실격	-13.6776
순복	-13.6776
위탁	-13.6776
틈타	-13.6776
감탄	-13.6776
쿠파	-13.6776
포키	-13.6776
마이키	-13.6777
미숙	-13.6777
아나이스	-13.6777
창작자	-13.6777
루루	-13.6777
피곤	-13.6777
류즈	-13.6777
혈통	-13.6777
부른다	-13.6777
받아들인다	-13.6777
아카쉬	-13.6777
중퇴	-13.6777
파출소	-13.6777
예약	-13.6777
밑천	-13.6777
향수	-13.6777
매달리	-13.6777
불황	-13.6777
도망갈	-13.6777
악취	-13.6777
유배지	-13.6777
에드거	-13.6777
이주해	-13.6777
절경	-13.6777
영토	-13.6777
휴게	-13.6777
호른	-13.6777
광호	-13.6777
아르노	-13.6777
치아키	-13.6777
식민지	-13.6777
허구	-13.6777
리마	-13.6778
눈보라	-13.6778
코너스	-13.6778
문희	-13.6778
손놀림	-13.6778
사카르	-13.6778
부흥	-13.6778
석연	-13.6778
새끼	-13.6778
편찬	-13.6778
희연	-13.6778
싫증	-13.6778
석우	-13.6778
입맛	-13.6778
쳐라	-13.6778
촉수	-13.6778
끝났	-13.6779
생화학	-13.6779
낙태	-13.6779
메카	-13.6779
날아와	-13.6779
구루	-13.6779
베트	-13.6779
둘러싸여	-13.6779
피닉	-13.6779
미렌	-13.6779
외신	-13.6779
종종	-13.6779
데이브	-13.6779
돌볼	-13.6779
맞출	-13.6779
질린	-13.6779
독실	-13.6779
인질극	-13.6779
돌격	-13.6779
일반인	-13.6779
평행선	-13.6779
격파	-13.6779
선발팀	-13.678
매체	-13.678
까치	-13.678
공공	-13.678
바라본	-13.678
정윤	-13.678
참극	-13.678
폭탄선언	-13.678
율동	-13.678
삼국지	-13.678
용석	-13.678
승준	-13.678
발명왕	-13.678
채워진	-13.678
민디	-13.678
대참사	-13.678
책봉	-13.678
사칭	-13.678
색감	-13.678
칸트	-13.6781
오붓	-13.6781
오사무	-13.6781
타임즈	-13.6781
가정교사	-13.6781
머문	-13.6781
깨울	-13.6781
나문희	-13.6781
코웃음	-13.6781
암초	-13.6781
유경	-13.6781
벌교	-13.6781
미확인	-13.6781
통학	-13.6781
재복	-13.6781
행실	-13.6781
미쿠	-13.6781
최동원	-13.6782
노멀	-13.6782
카이도	-13.6782
선출	-13.6782
마오리	-13.6782
공정	-13.6782
카즈	-13.6782
풀타임	-13.6782
윤우	-13.6782
조윤	-13.6782
작업실	-13.6782
마찰	-13.6782
신출	-13.6782
잇달	-13.6782
색채	-13.6783
알리바이	-13.6783
옆방	-13.6783
행정	-13.6783
키노	-13.6783
빌레	-13.6783
사기극	-13.6783
식스	-13.6783
피츠	-13.6783
외세	-13.6783
베터	-13.6783
바랄	-13.6784
그만둘	-13.6784
소굴	-13.6784
선령	-13.6784
심장병	-13.6784
감청	-13.6784
나오코	-13.6784
창극	-13.6784
민호	-13.6784
치올라	-13.6784
종범	-13.6784
창조자	-13.6784
바르도	-13.6784
상옥	-13.6784
진숙	-13.6784
재소	-13.6784
강행	-13.6785
봉식	-13.6785
족족	-13.6785
열혈	-13.6785
모티	-13.6785
리쿠	-13.6785
고려인	-13.6785
인형극	-13.6785
현진	-13.6785
향기	-13.6785
정민	-13.6785
미츠	-13.6785
암담	-13.6785
혁명군	-13.6785
지워진	-13.6785
매드	-13.6785
자퇴	-13.6786
미쳐	-13.6786
입소문	-13.6786
체력	-13.6786
발포	-13.6786
핵전쟁	-13.6786
마른	-13.6786
버즈	-13.6786
민구	-13.6786
황후	-13.6786
계기판	-13.6786
삼류	-13.6786
소나무	-13.6786
실존	-13.6786
철든	-13.6786
월리스	-13.6787
채팅	-13.6787
백발	-13.6787
끝마칠	-13.6787
급파	-13.6787
석호	-13.6787
마츠리	-13.6787
민준	-13.6787
따라나선	-13.6787
율리아	-13.6787
호쿠	-13.6787
발레리	-13.6787
신랄	-13.6787
미녀	-13.6787
덕재	-13.6787
대응	-13.6787
갈증	-13.6788
영순	-13.6788
비몽	-13.6788
사토미	-13.6788
메이미	-13.6788
완비	-13.6788
폭력배	-13.6788
단죄	-13.6788
치욕	-13.6788
담아낸다	-13.6788
우학	-13.6788
시몽	-13.6788
할멈	-13.6788
맞닥뜨린다	-13.6788
예술계	-13.6788
개설	-13.6788
미친개	-13.6788
허무	-13.6789
혜리	-13.6789
방랑	-13.6789
첫날밤	-13.6789
일침	-13.6789
친위대	-13.6789
수용자	-13.6789
거린다	-13.6789
돈독	-13.6789
검술	-13.6789
다이안	-13.6789
박동	-13.6789
접선	-13.6789
니브	-13.6789
포정	-13.679
그라운드	-13.679
시커	-13.679
세리카	-13.679
초밥	-13.679
순영	-13.679
산림	-13.679
군견	-13.679
범우	-13.679
종천	-13.679
전국구	-13.679
숨쉬	-13.679
태평	-13.679
부착	-13.679
그야말로	-13.679
홍수아	-13.679
변수	-13.6791
떠도	-13.6791
희미	-13.6791
토드	-13.6791
오피스	-13.6791
스타프	-13.6791
안무가	-13.6791
내게는	-13.6791
역부족	-13.6791
독신	-13.6791
축구팀	-13.6791
공상	-13.6792
라이즈	-13.6792
선녀	-13.6792
연재	-13.6792
방행	-13.6792
발짝	-13.6792
승화	-13.6792
경장	-13.6792
목재	-13.6793
마주쳤	-13.6793
달튼	-13.6793
발트	-13.6793
후궁	-13.6793
내몰려	-13.6793
실연	-13.6793
잠드	-13.6794
유급	-13.6794
도망쳐야	-13.6794
봉사자	-13.6794
영역	-13.6794
지나친	-13.6794
금천	-13.6794
노모	-13.6794
친할머니	-13.6794
리쉬	-13.6794
사토르	-13.6794
파스타	-13.6795
진취	-13.6795
종반	-13.6795
벌판	-13.6795
별별	-13.6795
현목	-13.6795
우터	-13.6796
격정	-13.6796
새봄	-13.6797
아바타	-13.6797
키친	-13.6797
초탄	-13.6797
죄명	-13.6797
교육부	-13.6797
파파	-13.6797
접목	-13.6797
정법	-13.6797
유학길	-13.6797
영배	-13.6798
조선족	-13.6798
삼순	-13.6798
바쿠	-13.6798
건너편	-13.6798
마쌍	-13.6798
지겹	-13.6798
본토	-13.6798
엘리스	-13.6798
통역사	-13.6798
진봉	-13.6798
굳세	-13.6798
보육	-13.6798
날렸	-13.6798
동부	-13.6798
유용	-13.6798
국방성	-13.6798
모금	-13.6799
결과물	-13.6799
소검	-13.6799
걸쳐	-13.6799
선행	-13.6799
생명력	-13.6799
불경기	-13.68
모피	-13.68
맷집	-13.68
위층	-13.68
찰지	-13.68
볼모	-13.68
왕래	-13.6801
투바	-13.6801
웅장	-13.6801
살해범	-13.6801
여객	-13.6801
점심	-13.6801
예문	-13.6801
링거	-13.6801
비행선	-13.6802
편히	-13.6802
아났	-13.6802
라모나	-13.6802
희망찬	-13.6802
우치	-13.6802
화학자	-13.6802
술판	-13.6802
밝혀진	-13.6802
종군	-13.6803
앙고	-13.6803
숨결	-13.6803
무쇠	-13.6803
큰스님	-13.6803
희박	-13.6803
바브	-13.6803
티엔	-13.6803
포크	-13.6803
암호명	-13.6803
떠나보낸	-13.6804
영준	-13.6804
디모	-13.6804
어이없	-13.6804
악연	-13.6804
백방	-13.6805
추상	-13.6805
금방	-13.6805
제프리	-13.6805
남규	-13.6805
장벽	-13.6805
미즈	-13.6805
졸업반	-13.6805
민감	-13.6805
그다지	-13.6805
물꽃	-13.6805
구금	-13.6805
안겨	-13.6805
사파이어	-13.6806
사계절	-13.6806
보물섬	-13.6806
요조	-13.6806
시오리	-13.6806
봐서	-13.6806
금발	-13.6807
행동파	-13.6807
곧바로	-13.6807
미해결	-13.6807
격려	-13.6807
이자벨라	-13.6807
리즈	-13.6808
입주민	-13.6808
사냥개	-13.6808
변기	-13.6808
태풍	-13.6808
파천	-13.6808
끝낸다	-13.6808
피오르	-13.6809
모드	-13.6809
연화	-13.6809
영조	-13.6809
북소리	-13.6809
돼서	-13.681
쓰레기장	-13.681
성윤아	-13.681
투신	-13.681
소질	-13.681
한산도	-13.6811
리버스	-13.6811
분석가	-13.6811
어딜	-13.6811
남아프리카	-13.6811
비참	-13.6812
꼬인	-13.6812
모호	-13.6812
널리	-13.6813
미애	-13.6813
채굴	-13.6813
재키	-13.6813
마사오	-13.6813
남근	-13.6813
괴상	-13.6813
임금	-13.6813
일련	-13.6814
일용	-13.6814
무루	-13.6814
태클	-13.6814
증거물	-13.6814
수상히	-13.6814
요새	-13.6814
주축	-13.6814
▁YE	-13.6814
곡소리	-13.6814
영화광	-13.6814
사다리	-13.6814
주술사	-13.6815
금나라	-13.6815
진철	-13.6815
호송대	-13.6815
루니	-13.6815
피카	-13.6815
열매	-13.6815
허비	-13.6816
난요	-13.6816
절차	-13.6816
박차	-13.6816
아이샤	-13.6816
블루시	-13.6816
삼계	-13.6816
통째	-13.6816
공명	-13.6816
불러서	-13.6817
라스트	-13.6817
마메	-13.6817
기름	-13.6817
노바	-13.6817
당선	-13.6817
두근대	-13.6817
원표	-13.6818
생쥐	-13.6818
아쉬운	-13.6818
아사토	-13.6818
겨울밤	-13.6818
조난	-13.6819
아주머니	-13.6819
니티	-13.6819
격차	-13.6819
환대	-13.6819
조디	-13.6819
줄리아나	-13.6819
시녀	-13.682
해맑	-13.682
정미	-13.682
따로	-13.682
보스톤	-13.682
출근길	-13.682
봐야	-13.682
군요	-13.6821
며느리	-13.6821
왕권	-13.6821
캐내	-13.6821
녹이	-13.6821
보상금	-13.6821
신랑	-13.6821
조통	-13.6821
재미없	-13.6822
정든	-13.6822
영등	-13.6823
따라간다	-13.6823
두리틀	-13.6823
야설	-13.6823
재식	-13.6823
오션	-13.6823
보금	-13.6823
조연	-13.6823
터보	-13.6823
스몰	-13.6824
란국	-13.6824
장학	-13.6824
역동	-13.6824
드문	-13.6824
배구	-13.6824
기독	-13.6824
절세	-13.6824
돼야	-13.6825
지일주	-13.6825
예선	-13.6825
필리	-13.6825
빠져버린	-13.6825
예스	-13.6826
배달원	-13.6826
우화	-13.6826
축사	-13.6826
오언	-13.6826
진영	-13.6826
영애	-13.6827
입력	-13.6827
군함	-13.6827
관여	-13.6827
친딸	-13.6827
우주국	-13.6828
짜로	-13.6828
자택	-13.6828
명운	-13.6828
바짝	-13.6828
당차	-13.6828
토부	-13.6828
발병	-13.6829
단테	-13.6829
천진	-13.6829
선뜻	-13.6829
범려	-13.6829
탄소	-13.683
곰치	-13.683
복장	-13.683
파힘	-13.683
막내딸	-13.683
걸즈	-13.6831
정의감	-13.6831
병실	-13.6831
뒤바꿀	-13.6831
무민	-13.6831
취안	-13.6831
용돈	-13.6832
소극	-13.6832
마루	-13.6833
본디	-13.6833
방금	-13.6833
연마	-13.6834
대혼	-13.6834
번복	-13.6834
각양	-13.6834
매단	-13.6834
미완성	-13.6835
반강	-13.6835
배반	-13.6835
배드	-13.6835
해효	-13.6835
봉제	-13.6835
백신	-13.6836
위시	-13.6836
미식	-13.6837
무서울	-13.6837
설리	-13.6837
고블린	-13.6837
웬일	-13.6837
주옥	-13.6838
여직	-13.6838
대출	-13.6838
늘려	-13.6839
창제	-13.6839
끝나갈	-13.6839
불순	-13.6839
서린	-13.684
노마	-13.684
서당	-13.684
초식	-13.684
누야	-13.684
치직	-13.684
계정	-13.6841
시울	-13.6841
우상	-13.6841
대필	-13.6842
중개인	-13.6842
차린	-13.6842
따라나서	-13.6842
영사실	-13.6842
비크	-13.6843
롱이	-13.6843
관원	-13.6843
방위	-13.6844
채울	-13.6844
투명	-13.6844
점거	-13.6844
오복	-13.6845
신노	-13.6845
자축	-13.6845
구타	-13.6845
영선	-13.6845
심리전	-13.6846
폴리	-13.6847
돌진	-13.6847
묘지	-13.6847
시린	-13.6847
예거	-13.6848
실크	-13.6848
카스	-13.6848
신약	-13.6848
창단	-13.6848
탐정단	-13.6849
회관	-13.685
겨를	-13.685
순진	-13.685
공감대	-13.685
지켜온	-13.685
장의사	-13.685
대소동	-13.685
무디	-13.685
앞머리	-13.6851
맞대결	-13.6851
수렁	-13.6851
열연	-13.6851
낙하	-13.6851
요소	-13.6852
종서	-13.6852
진연	-13.6853
심신	-13.6853
성찰	-13.6853
등반대	-13.6853
베리	-13.6853
감마	-13.6854
회상	-13.6854
도우며	-13.6854
능한	-13.6854
접대	-13.6854
괴리	-13.6855
애관	-13.6855
이주한	-13.6855
요리사	-13.6855
토시	-13.6856
모른다고	-13.6856
서영	-13.6856
문구	-13.6856
손짓	-13.6857
열등	-13.6857
진입	-13.6857
연간	-13.6858
청한다	-13.6858
독살	-13.6858
불씨	-13.6858
초조	-13.6858
서민	-13.6858
현주	-13.6858
불치	-13.6858
종단	-13.6859
내색	-13.6859
비급	-13.6859
들인다	-13.6859
수완	-13.6859
난감	-13.6859
북극성	-13.686
데모	-13.6861
순박	-13.6861
리모	-13.6861
발작	-13.6862
문유	-13.6862
기량	-13.6862
차질	-13.6862
밤하늘	-13.6863
마용	-13.6863
대해선	-13.6863
호구	-13.6864
진회	-13.6864
송지	-13.6864
알린다	-13.6864
아라시	-13.6865
무코	-13.6865
유열	-13.6865
모가지	-13.6866
대처	-13.6866
즈음	-13.6866
업적	-13.6866
방심	-13.6866
물드	-13.6867
비교	-13.6867
조개	-13.6867
시점	-13.6868
연시	-13.6868
홍대	-13.6868
우세	-13.6868
미심	-13.6868
아카이	-13.6868
채영	-13.6869
운전대	-13.6869
다자이	-13.6869
병상	-13.6869
데드	-13.687
두광	-13.687
아무데	-13.6871
지부장	-13.6871
벤치	-13.6871
금단	-13.6871
발소리	-13.6871
영부	-13.6872
이야말로	-13.6872
대장군	-13.6872
소도시	-13.6872
본드	-13.6873
이이치	-13.6873
법원	-13.6874
소피나	-13.6874
관중	-13.6874
혼전	-13.6874
잡힌다	-13.6875
통장	-13.6875
능가	-13.6876
전출	-13.6876
걸맞	-13.6877
시르	-13.6877
친일	-13.6878
생활력	-13.6879
세레	-13.6879
법안	-13.6879
발타	-13.6879
유선	-13.688
명석	-13.688
풍성	-13.688
구부	-13.688
작품상	-13.688
소초	-13.6881
패전	-13.6881
정열	-13.6881
간악	-13.6881
러너	-13.6881
-!	-13.6882
자옥	-13.6882
해낸다	-13.6882
공룡시대	-13.6882
개국	-13.6883
스호	-13.6884
전업	-13.6884
엔초	-13.6884
책상	-13.6885
계신	-13.6885
영장	-13.6885
선문	-13.6886
개조	-13.6887
시경	-13.6887
치즈	-13.6887
행해	-13.6888
탐하	-13.6888
성규	-13.6888
지향	-13.6888
탈주	-13.6888
속사정	-13.689
신난	-13.6891
피위	-13.6892
장품	-13.6893
저물	-13.6893
팔선	-13.6893
장병	-13.6893
간난	-13.6893
유신	-13.6894
알아주	-13.6894
등판	-13.6894
혈전	-13.6895
서버	-13.6895
지휘사	-13.6895
남창	-13.6896
일출	-13.6896
비파	-13.6896
서먹	-13.6897
놓여	-13.6897
수립	-13.6898
소화	-13.6898
강물	-13.6898
세영	-13.6899
번영	-13.6899
노래방	-13.6899
재상	-13.6899
대성당	-13.69
중탕	-13.69
불바다	-13.69
우원	-13.6901
문정	-13.6901
그래퍼	-13.6902
연구비	-13.6902
저편	-13.6902
용남	-13.6903
선정	-13.6904
빛내	-13.6904
아다치	-13.6904
소담	-13.6905
흐른다	-13.6905
음반	-13.6905
구제	-13.6905
사이버	-13.6906
여의사	-13.6906
반감	-13.6907
진공	-13.6907
명검	-13.6908
시우	-13.6908
숨진	-13.6909
던컨	-13.691
재물	-13.6911
대권	-13.6911
내디	-13.6912
필적	-13.6912
효도	-13.6912
단역	-13.6912
망한	-13.6914
설계도	-13.6915
원천	-13.6915
마계	-13.6916
여경	-13.6916
아니타	-13.6916
공포감	-13.6916
라프	-13.6916
전처	-13.6917
현장감	-13.6918
영리	-13.6918
기아스	-13.6918
상조	-13.6918
위조	-13.6919
오뜨	-13.6919
선수단	-13.6919
서력	-13.692
큰형	-13.692
진군	-13.6923
신식	-13.6925
태민	-13.6926
서판	-13.6927
매사	-13.6927
조크	-13.6929
케인	-13.6929
체전	-13.693
미상	-13.6931
대철	-13.6931
성덕	-13.6931
본진	-13.6932
애원	-13.6932
극영화	-13.6932
고품격	-13.6934
불미	-13.6934
과잉	-13.6937
발목	-13.6938
조사단	-13.694
정복자	-13.694
아파도	-13.6941
미리	-13.6941
경과	-13.6941
학과	-13.6941
세기말	-13.6942
지질	-13.6942
켄지	-13.6943
별명	-13.6944
아워	-13.6944
가정집	-13.6945
하루키	-13.6946
진나라	-13.6946
전송	-13.6947
시골집	-13.6947
함선	-13.6947
저수	-13.6948
키비	-13.6948
에덴	-13.6949
배제	-13.695
곧장	-13.6951
오경	-13.6951
처분	-13.6952
진무	-13.6952
총리	-13.6952
개막	-13.6954
정남	-13.6955
유비	-13.6956
귀비	-13.6957
교육자	-13.6958
여든	-13.6958
가락	-13.6958
모험심	-13.6959
윤주	-13.696
갱도	-13.696
여회	-13.6961
조지나	-13.6962
강단	-13.6962
소사	-13.6963
손실	-13.6963
서호	-13.6965
외지	-13.6966
속상한	-13.6966
다급히	-13.6968
보티	-13.6969
성취	-13.697
마음씨	-13.6971
호선	-13.6971
못한다면	-13.6973
구원자	-13.6973
로딩	-13.6974
아이카	-13.6974
한량	-13.6974
정서	-13.6974
나르	-13.6975
포도	-13.6975
루이지	-13.6975
계장	-13.6977
바타	-13.6979
여주인공	-13.6979
원미	-13.6979
개관	-13.6979
저명	-13.6981
비호	-13.6982
여대	-13.6982
오버	-13.6983
위나라	-13.6984
원형	-13.6984
대극장	-13.6985
담당자	-13.6986
물음	-13.6987
지냈	-13.6988
시스	-13.6989
바니	-13.6989
숙이	-13.699
군자	-13.699
칸나	-13.6992
접수	-13.6994
합하	-13.6994
동수	-13.6995
등진	-13.6995
신실	-13.6997
걸으며	-13.6998
아렌	-13.6998
언론인	-13.6999
서정	-13.6999
상월	-13.6999
동안거	-13.7
아쉽	-13.7001
단호	-13.7002
헬기	-13.7004
대악	-13.7005
만져	-13.7007
이륙	-13.7008
게이지	-13.7009
무상	-13.701
회사원	-13.7015
인간미	-13.7015
제문	-13.7017
화물	-13.7019
후연	-13.7021
실제로	-13.7032
폭격기	-13.7032
막막	-13.7032
준다며	-13.7033
세조	-13.7034
위선	-13.7037
로보트	-13.7039
필수	-13.7043
아베	-13.7044
지난날	-13.7045
자백	-13.7047
최적	-13.7049
화마	-13.705
까이	-13.705
여긴다	-13.7051
덮친다	-13.7051
큰딸	-13.7051
살결	-13.7052
해석	-13.7053
배치	-13.7053
여심	-13.7054
가부장	-13.7055
관심사	-13.7055
나약	-13.7055
구보	-13.7056
음악상	-13.7056
로미오	-13.7059
강할	-13.706
제안서	-13.7061
무마	-13.7064
방음	-13.7071
야호	-13.7072
탈옥수	-13.7072
동식	-13.7074
세심	-13.7075
비열	-13.7076
동시대	-13.7076
조야	-13.7077
뒤편	-13.7077
막스	-13.7079
복도	-13.7083
아츠	-13.7084
지근	-13.7084
치군	-13.7085
이싱	-13.7087
는커녕	-13.7088
제니아	-13.7091
숲길	-13.7092
다닐	-13.7092
영화배우	-13.7093
세미	-13.7094
안란	-13.7098
남미	-13.71
양반	-13.7102
으로써	-13.7102
사진사	-13.7104
만석	-13.7108
지령	-13.7108
지칠	-13.7111
별일	-13.7113
생신	-13.7114
주역	-13.7114
주임	-13.7116
대구	-13.7117
디터	-13.7118
원소	-13.7124
아홉수	-13.7124
본명	-13.7125
대판	-13.7126
일영	-13.7128
서리	-13.7128
되돌아간다	-13.7129
막차	-13.7131
코코아	-13.7138
위세	-13.7142
지각	-13.7142
기척	-13.7143
부원	-13.7143
주체	-13.7144
더미	-13.7145
오너	-13.7146
호리	-13.7148
글자	-13.7148
부시	-13.7151
총알	-13.7151
이주영	-13.7154
건담	-13.7154
무단	-13.7157
신물	-13.7158
치부	-13.7158
장남	-13.7158
대본	-13.7163
차차	-13.7164
생활비	-13.7164
매도	-13.7165
막부	-13.7167
ette	-13.7168
화원	-13.7173
아토	-13.7174
세진	-13.7182
전범	-13.7184
극사	-13.7185
제작자	-13.7185
도현	-13.7186
윤수	-13.7187
귀살	-13.7187
황분	-13.7189
도윤	-13.7191
파고	-13.7191
허기	-13.7194
지낼	-13.7194
시차	-13.7195
할배	-13.72
김정도	-13.7201
개발자	-13.7203
정말로	-13.7204
책사	-13.7207
05	-13.7207
우승자	-13.7208
거신	-13.7211
종양	-13.7212
강사	-13.7217
오무	-13.7218
소피아	-13.7224
새라	-13.7225
고택	-13.7229
후작	-13.7232
이칭	-13.7232
생일상	-13.7233
희생양	-13.7233
감시자	-13.7234
하정우	-13.7234
비밀경찰	-13.7236
오월	-13.7237
대탈출	-13.7237
오감	-13.7238
기근	-13.7242
주어진다	-13.7244
상길	-13.7248
메그	-13.7251
내미	-13.7254
오바	-13.7256
서부터	-13.7257
티나	-13.7259
장원	-13.726
죽인다	-13.7271
당도	-13.7274
포지	-13.7275
철도	-13.7282
점령지	-13.7285
비제	-13.7288
혈기	-13.7289
실력자	-13.7294
ll	-13.73
금수	-13.7312
대학살	-13.7313
입양아	-13.7316
차단	-13.7319
피사	-13.7319
초전	-13.7322
물속	-13.7322
수사망	-13.7324
달시	-13.7329
사려	-13.7331
법도	-13.7331
투지	-13.7332
먹일	-13.7332
지희	-13.7333
홀가	-13.7333
백인	-13.7336
철들	-13.7338
이완	-13.734
지석	-13.7342
되묻	-13.7354
남겨진다	-13.7354
지배자	-13.7356
제제	-13.7358
곳간	-13.7358
서원	-13.736
시비	-13.7361
레다	-13.7363
방오	-13.7363
기현	-13.7365
유년	-13.7365
대무	-13.7365
여행길	-13.7367
에스텔라	-13.7373
이닝	-13.7375
기색	-13.7382
한바탕	-13.7387
딱한	-13.7387
오소	-13.7403
친양	-13.7404
베지	-13.7405
로브	-13.7406
서장	-13.7407
남긴다	-13.7408
호두	-13.7422
토지	-13.7429
막다른	-13.743
지울	-13.7431
민지	-13.7431
몸살	-13.7436
신음	-13.744
기복	-13.7444
이희준	-13.7446
경험자	-13.7446
제후	-13.7457
그랜드	-13.746
안다고	-13.7461
번제	-13.7462
태어난다	-13.7463
제일가	-13.7465
원했	-13.7478
발명가	-13.7478
순자	-13.7478
려다가	-13.748
수민	-13.7483
ap	-13.7483
대성공	-13.7483
어깨	-13.7486
하킴	-13.7487
알반	-13.7491
약기	-13.7494
링고	-13.7497
do	-13.75
중국인	-13.7504
마주할	-13.751
파수	-13.7524
선주	-13.7524
죽는다	-13.7526
일동	-13.7534
여학교	-13.754
보부	-13.7545
오늘날	-13.7551
못된	-13.7554
의문사	-13.7557
인순	-13.7558
세간	-13.7561
마중	-13.7564
▁700	-13.7567
거침없이	-13.7569
노기	-13.757
오제	-13.7577
아디	-13.7582
일방	-13.7588
예지	-13.7589
이성민	-13.7591
독성	-13.7591
음대	-13.7595
만식	-13.7597
as	-13.7597
▁MA	-13.7612
화사	-13.7614
과격	-13.7614
ew	-13.7617
휴가지	-13.7619
했으며	-13.7624
말없이	-13.7625
마치다	-13.7626
담긴다	-13.7626
해변가	-13.7651
버그	-13.7653
치장	-13.7659
자문	-13.7667
순도	-13.7669
무주	-13.7673
결정지	-13.7674
장대	-13.7676
소원인	-13.7677
그늘	-13.7682
...	-13.7691
육성	-13.7692
작사	-13.7697
영과	-13.7699
지용	-13.7707
전열	-13.7709
유수	-13.7729
아이유	-13.7731
질다	-13.7732
귀수	-13.7735
주변인	-13.7735
자발	-13.774
홍성	-13.7747
사단	-13.7757
고층	-13.7768
해발	-13.7786
혁명가	-13.779
주물	-13.7791
귀인	-13.7791
오시	-13.7795
궁의	-13.7797
사후	-13.7797
무적	-13.7804
고픈	-13.781
오명	-13.7813
고운	-13.7814
상주	-13.7814
음악사	-13.7819
고갱	-13.7819
인체	-13.782
도술	-13.7823
유도	-13.7834
심기	-13.7864
순과	-13.7875
두관	-13.7885
화나	-13.7885
론가	-13.7886
말단	-13.7908
기증	-13.7921
적군	-13.7942
게바라	-13.7955
대비	-13.7962
만발	-13.7973
수판	-13.7993
에런	-13.7994
고르	-13.7995
게요	-13.7996
일관	-13.8006
봉고	-13.801
대면	-13.8011
알선	-13.8017
중세	-13.8019
안야	-13.8031
지체	-13.8032
수상자	-13.8041
미수	-13.8099
아닌지	-13.8104
대시	-13.8116
86	-13.8116
간주	-13.8144
준수	-13.8153
내주	-13.8154
기존	-13.816
다가와	-13.8161
모어	-13.8188
속세	-13.8197
도식	-13.8214
에콜	-13.8226
적막	-13.8227
거사	-13.8248
주비	-13.8262
나마	-13.8264
제사	-13.8277
인호	-13.8308
날아들	-13.8328
이슈	-13.8349
수심	-13.8367
10	-13.8368
가업	-13.8379
도모	-13.8389
규의	-13.8429
수미	-13.8455
천기	-13.8458
선인	-13.8501
기우	-13.8524
한희	-13.8525
브이	-13.8527
한잔	-13.8527
세주	-13.8558
정기	-13.8567
GA	-13.8577
한지우	-13.8598
우주인	-13.863
해마	-13.8645
포이	-13.8674
못다	-13.8747
제나	-13.8751
lo	-13.8776
조기	-13.8787
살길	-13.879
건만	-13.8839
방지	-13.8858
루가	-13.887
앞날	-13.8871
이유로	-13.8881
살인자	-13.8889
해제	-13.894
다모	-13.9024
18	-13.9048
추기	-13.905
es	-13.9053
수려	-13.9069
활동가	-13.9086
▁32	-13.9102
영분	-13.9123
별한	-13.913
기본	-13.9167
수박	-13.9174
들으면	-13.9187
이송	-13.9224
이랑	-13.9229
함게	-13.9274
천아	-13.9368
H	-13.9438
수신	-13.9455
다문	-13.9465
고티	-13.9517
기방	-13.9584
중대	-13.9638
인걸	-13.9667
선택지	-13.9692
▁....	-13.9712
최대한	-13.9713
진짜로	-13.9731
예의	-13.9742
흔	-13.9794
게드	-13.9802
속보	-13.9805
만길	-13.9806
름	-13.986
찬의	-13.9917
은경	-13.9948
네다	-13.9979
yo	-14.0009
타로	-14.0024
확	-14.0028
중사	-14.0031
겹	-14.0039
찔	-14.0061
잖	-14.0079
꼽	-14.0088
엇	-14.0091
덴버	-14.0092
빗	-14.0093
다랑어	-14.0094
un	-14.0094
짓눌	-14.0094
드루이드	-14.0094
퇴직	-14.0094
누그러뜨	-14.0094
골칫	-14.0094
꾸러기	-14.0094
올빼미	-14.0094
다이내믹	-14.0094
거든요	-14.0094
ight	-14.0094
▁COM	-14.0094
▁Girl	-14.0094
▁happ	-14.0094
안타깝	-14.0094
▁After	-14.0094
▁who	-14.0094
까다롭	-14.0094
울트론	-14.0094
깨뜨리	-14.0094
끄집어내	-14.0094
동그랗	-14.0094
망가뜨리	-14.0094
몰아붙이	-14.0094
얽히고설키	-14.0094
트랙	-14.0094
단조롭	-14.0094
▁in	-14.0094
물려주	-14.0095
척척	-14.0095
dent	-14.0095
쓸어버리	-14.0095
▁GO	-14.0095
옥탑	-14.0095
wi	-14.0095
der	-14.0095
밀어내	-14.0095
ro	-14.0095
land	-14.0095
▁IM	-14.0095
옥황	-14.0095
od	-14.0095
떠내려가	-14.0095
▁ID	-14.0095
oo	-14.0095
앵무	-14.0095
▁HD	-14.0095
rl	-14.0095
wa	-14.0095
눈물겹	-14.0095
MAM	-14.0095
▁STAR	-14.0095
드나들	-14.0095
탐구	-14.0095
ive	-14.0095
더럽히	-14.0095
잡아오	-14.0096
약육	-14.0096
날아오르	-14.0096
조림	-14.0096
ans	-14.0097
▁~~	-14.0097
탐관	-14.0097
휘발	-14.0097
낙제	-14.0097
일확	-14.0097
▁123	-14.0098
덤비	-14.0098
미혼	-14.0099
하르방	-14.0099
현모	-14.0099
목욕	-14.0099
허탈	-14.0099
암벽	-14.0099
찾아보	-14.0099
척추	-14.0099
흥신	-14.01
싫어하	-14.01
휴대	-14.01
가리봉	-14.01
갑상	-14.01
외교	-14.0101
초록	-14.0101
▁63	-14.0101
드웨이	-14.0101
연설	-14.0102
넘어지	-14.0102
▁205	-14.0102
생겨나	-14.0103
갓난	-14.0104
잡아가	-14.0104
HO	-14.0104
동급	-14.0105
한파	-14.0105
남부럽	-14.0107
강식	-14.0108
동무	-14.0109
점프	-14.0109
천금	-14.0109
평사	-14.0112
친화	-14.0112
더듬	-14.0112
서글	-14.0112
SONA	-14.0113
경화	-14.0114
서럽	-14.0114
얼리	-14.0116
투구	-14.0117
본색	-14.012
테디	-14.012
연체	-14.0121
모질	-14.0122
연금	-14.0124
애교	-14.0124
헤비	-14.0125
무서워하	-14.0127
반달	-14.0128
lan	-14.0128
공화	-14.013
▁Ind	-14.013
등록	-14.0131
서독	-14.0132
봉오	-14.0134
연리	-14.0135
본거	-14.0135
동선	-14.0136
치악	-14.0139
난파	-14.014
▁XX	-14.0141
뚫리	-14.0145
리노	-14.0145
무채	-14.0148
법무	-14.0148
중학	-14.0151
공세	-14.0151
백화	-14.0152
입히	-14.0155
검정	-14.0156
두르	-14.0159
먹히	-14.0161
범위	-14.0162
종신	-14.0165
구미	-14.0167
속임	-14.0168
허수	-14.0168
집배	-14.0173
당부	-14.0173
RD	-14.0174
▁you	-14.0181
불러내	-14.0183
찌들	-14.0183
눈뜨	-14.0188
상제	-14.0197
음파	-14.0199
극장가	-14.02
중개	-14.0201
반동	-14.0203
갈리	-14.0214
양처	-14.0217
벌리	-14.0226
맛나	-14.0235
주동	-14.0235
미화	-14.0239
비키	-14.024
믿기	-14.0284
NB	-14.029
해라	-14.0303
라고요	-14.0304
쫓아내	-14.0343
!?	-14.0347
단심	-14.0365
뒤틀	-14.043
진제	-14.0447
소리치	-14.0542
도취	-14.0564
대문	-14.0567
더위	-14.0574
ra	-14.0578
라네	-14.0603
벗기	-14.0613
정사	-14.0616
▁FES	-14.0652
노도	-14.0678
신명	-14.0765
low	-14.0769
87	-14.0932
oy	-14.115
rea	-14.1157
me	-14.1268
BC	-14.1656
ica	-14.1845
ASS	-14.206
AA	-14.2537
27	-14.2708
ly	-14.2853
am	-14.3161
96	-14.343
ome	-14.3432
all	-14.35
▁Ro	-14.358
▁Ba	-14.4052
ow	-14.4081
rm	-14.4164
ter	-14.4226
re	-14.4267
AIS	-14.4292
▁Pa	-14.4381
▁Bu	-14.4435
95	-14.4521
MAJ	-14.4544
'	-14.4544
블린	-14.4773
야말로	-14.4784
78	-14.4805
삭	-14.4828
루키	-14.4952
쁘	-14.4965
라운드	-14.5023
지른다	-14.5035
워진	-14.5037
무서워	-14.5039
연계	-14.5048
망칠	-14.5048
망친	-14.5051
컬	-14.5055
앨	-14.5058
획	-14.5067
큼	-14.5068
눌	-14.5071
슬럼	-14.5072
꺼	-14.5079
쩌	-14.508
공습	-14.5082
넬	-14.5082
균	-14.5084
춰	-14.5084
깨운다	-14.5084
텔	-14.5085
템	-14.5085
부러울	-14.5085
챙	-14.5085
드러난	-14.5086
망쳐	-14.5086
바스티안	-14.5087
푼	-14.5088
납	-14.5088
콤	-14.5089
툴	-14.5089
럭	-14.509
퓨	-14.509
현악	-14.509
황무	-14.5091
슬림	-14.5091
쇄	-14.5091
흔드	-14.5091
트로피	-14.5091
앙심	-14.5091
허드렛	-14.5092
OUR	-14.5092
비린내	-14.5092
스케	-14.5092
첨	-14.5092
랙	-14.5092
피비린	-14.5093
ver	-14.5093
젝	-14.5093
엣	-14.5093
꿔	-14.5093
맺힌	-14.5093
청첩	-14.5094
엑	-14.5094
메달리스트	-14.5094
어우러	-14.5094
일으킬	-14.5094
어져야	-14.5094
냄	-14.5094
팔려나갔	-14.5094
밴	-14.5094
갇	-14.5094
카쉬	-14.5094
굴러떨어질	-14.5094
기다려왔	-14.5094
망해버렸	-14.5094
새겨져	-14.5094
시끄러워진다	-14.5094
쓴답시고	-14.5094
차려줘도	-14.5094
드러날	-14.5094
국제상업센터	-14.5094
놀라워한다	-14.5094
당겨졌	-14.5094
뒷받침	-14.5094
매끄러운	-14.5094
메스꺼움	-14.5094
알려줘야	-14.5094
즐거워진다	-14.5094
피웠으면	-14.5094
흐려졌	-14.5094
스트롱	-14.5094
쓰여진다	-14.5094
뽀	-14.5094
여서라도	-14.5094
꽃사슴	-14.5094
놀잇감	-14.5094
동사서독	-14.5094
법화경	-14.5094
청계광장	-14.5094
풍전등화	-14.5094
흉악범	-14.5094
흙탕물	-14.5094
다람쥐	-14.5094
전광판	-14.5094
산산조각	-14.5094
구치소	-14.5094
세일즈	-14.5094
슐	-14.5094
가벼워	-14.5094
게으른	-14.5094
겹쳐진다	-14.5094
곤두선다	-14.5094
골육상쟁	-14.5094
공산주의	-14.5094
구호식량	-14.5094
군법회의	-14.5094
금은보화	-14.5094
꼬드긴다	-14.5094
낙동강	-14.5094
뇌진탕	-14.5094
뇌출혈	-14.5094
눈여겨본	-14.5094
동고동락	-14.5094
뒷좌석	-14.5094
딸려온	-14.5094
리처상	-14.5094
멜로드라마	-14.5094
몽유병	-14.5094
무궁화호	-14.5094
무너져내릴	-14.5094
미드웨이섬	-14.5094
밀반입	-14.5094
박애주의	-14.5094
벌어질	-14.5094
베두인족	-14.5094
보드라운	-14.5094
부러움	-14.5094
부쳐질	-14.5094
비켜갈	-14.5094
빨랫줄	-14.5094
사윗감	-14.5094
삼엽충	-14.5094
새겨질	-14.5094
선입견	-14.5094
스테디셀러	-14.5094
신림동	-14.5094
심술쟁이	-14.5094
싱그러움	-14.5094
쓰디쓴	-14.5094
아오모리현	-14.5094
암각화	-14.5094
예쁜데요	-14.5094
옮겨진다는	-14.5094
일리노이주	-14.5094
정겨운	-14.5094
정육면체	-14.5094
짜여진	-14.5094
출퇴근길	-14.5094
침엽수림	-14.5094
토해낼	-14.5094
할랍니다	-14.5094
환경미화원	-14.5094
흥겨운	-14.5094
가려졌	-14.5094
생김새	-14.5094
실려온	-14.5094
정류장	-14.5094
지극정성	-14.5094
탈바꿈	-14.5094
합시다	-14.5094
삼지창	-14.5094
헤비메탈	-14.5094
사나워	-14.5094
소아마비	-14.5094
일그러져	-14.5094
가시덤불	-14.5094
간호조무사	-14.5094
경상남도	-14.5094
공직자	-14.5094
관현악단	-14.5094
광화문	-14.5094
구명보트	-14.5094
국제금융센터	-14.5094
군사분계선	-14.5094
군악대장	-14.5094
귀갓길	-14.5094
그림엽서	-14.5094
극락왕생	-14.5094
기니피그	-14.5094
기울인다	-14.5094
꽃피웠	-14.5094
네버엔딩	-14.5094
노란색	-14.5094
다사다난	-14.5094
담뱃잎	-14.5094
대동단결	-14.5094
동명이인	-14.5094
동상이몽	-14.5094
드릴게요	-14.5094
마지못해	-14.5094
마천루	-14.5094
만리장성	-14.5094
말더듬증	-14.5094
매표소	-14.5094
명실상부	-14.5094
모노톤	-14.5094
모닝콜	-14.5094
목탄화	-14.5094
무병장수	-14.5094
무색무취	-14.5094
무신론자	-14.5094
문무백관	-14.5094
밀반출	-14.5094
박수무당	-14.5094
반인반수	-14.5094
법치주의	-14.5094
부통령	-14.5094
비폭력주의	-14.5094
사실무근	-14.5094
손목시계	-14.5094
스러져	-14.5094
승강장	-14.5094
신유박해	-14.5094
신출귀몰	-14.5094
실오라기	-14.5094
실타래	-14.5094
악순환	-14.5094
암암리	-14.5094
애물단지	-14.5094
억눌렀	-14.5094
영산강	-14.5094
외갓집	-14.5094
우편배달부	-14.5094
울렁증	-14.5094
일편단심	-14.5094
잃어버려서	-14.5094
자력갱생	-14.5094
자리매김	-14.5094
자선기금	-14.5094
작아져서	-14.5094
잔칫집	-14.5094
조계종	-14.5094
조문객	-14.5094
죽림정사	-14.5094
증후군	-14.5094
진저브레드	-14.5094
질풍노도	-14.5094
차용증	-14.5094
창씨개명	-14.5094
처방전	-14.5094
천지개벽	-14.5094
취임식	-14.5094
콘택트렌즈	-14.5094
탱크톱	-14.5094
터줏대감	-14.5094
틈새시장	-14.5094
파란만장	-14.5094
퍼부으	-14.5094
표주박	-14.5094
푸줏간	-14.5094
풍비박산	-14.5094
확고부동	-14.5094
훈민정음	-14.5094
케르크	-14.5094
건드린다	-14.5094
공산품	-14.5094
교두보	-14.5094
기하급수	-14.5094
나무늘보	-14.5094
눈초리	-14.5094
단발머리	-14.5094
들려줍니다	-14.5094
버팀목	-14.5094
보증금	-14.5094
북망산	-14.5094
삼행시	-14.5094
스위트룸	-14.5094
애국자	-14.5094
연작시	-14.5094
유격대	-14.5094
유실물	-14.5094
전자지갑	-14.5094
절해고도	-14.5094
최북단	-14.5094
친생부모	-14.5094
탈북자	-14.5094
토라진	-14.5094
투우사	-14.5094
판자촌	-14.5094
함곡관	-14.5094
환전소	-14.5094
ious	-14.5094
가려져	-14.5094
간담회	-14.5094
노랫가락	-14.5094
당긴다	-14.5094
도련님	-14.5094
빗줄기	-14.5094
서약서	-14.5094
시집살이	-14.5094
영수증	-14.5094
응접	-14.5094
일러준	-14.5094
장인어른	-14.5094
천주교	-14.5094
투기꾼	-14.5094
한날한시	-14.5094
검안서	-14.5094
벽난로	-14.5094
비닐하우스	-14.5094
시켜야만	-14.5094
위화감	-14.5094
유부남	-14.5094
입막음	-14.5094
제럴드	-14.5094
지동설	-14.5094
천지신명	-14.5094
칼국수	-14.5094
IGH	-14.5094
ain	-14.5094
port	-14.5094
▁-----------	-14.5094
▁Don	-14.5094
▁Juli	-14.5094
▁Screen	-14.5094
▁every	-14.5094
▁특송단	-14.5094
가로질러	-14.5094
가셔브룸	-14.5094
갈팡질팡	-14.5094
감찰부	-14.5094
강경준	-14.5094
강신철	-14.5094
강해져야	-14.5094
강홍립	-14.5094
개구쟁이	-14.5094
거슬러	-14.5094
걸레질	-14.5094
게르하르트	-14.5094
격렬히	-14.5094
고슴도치	-14.5094
고정관념	-14.5094
곤돌라	-14.5094
곤두박질치	-14.5094
골드러시	-14.5094
곽노순	-14.5094
곽부성	-14.5094
곽윤기	-14.5094
구겨진	-14.5094
구구구	-14.5094
구스타브	-14.5094
굳건히	-14.5094
굴러떨어지	-14.5094
굴리엘모	-14.5094
굿모닝	-14.5094
귀여움	-14.5094
그나저나	-14.5094
그레나다	-14.5094
그레이브스	-14.5094
그린블랫	-14.5094
급격히	-14.5094
김강우	-14.5094
김경익	-14.5094
김경진	-14.5094
김동찬	-14.5094
김동휘	-14.5094
김록경	-14.5094
김성균	-14.5094
김순규	-14.5094
김연교	-14.5094
김우빈	-14.5094
김윤진	-14.5094
김재국	-14.5094
김재화	-14.5094
김종석	-14.5094
김종찬	-14.5094
김준형	-14.5094
김진근	-14.5094
김창섭	-14.5094
김혜수	-14.5094
김혜준	-14.5094
김희선	-14.5094
김희애	-14.5094
까뜨린느	-14.5094
까무러치	-14.5094
까발리	-14.5094
깔끔히	-14.5094
깨뜨릴	-14.5094
깨트린	-14.5094
꼬락서니	-14.5094
꼬맹이	-14.5094
꼬질꼬질	-14.5094
꽃샘추위	-14.5094
꾸역꾸역	-14.5094
꿀꿀이	-14.5094
끌어들인	-14.5094
끌어올려야	-14.5094
끼어드	-14.5094
나노미터	-14.5094
나르시시즘	-14.5094
나이아가라	-14.5094
나츠히코	-14.5094
남녀노소	-14.5094
넘실거리	-14.5094
넘어뜨리	-14.5094
네페르티티	-14.5094
노무현	-14.5094
노부치카	-14.5094
노스사이드	-14.5094
노스웨스트	-14.5094
녹아내리	-14.5094
놀러갔	-14.5094
농업용	-14.5094
눈망울	-14.5094
눈물겨운	-14.5094
눈부셨	-14.5094
뉴질랜드	-14.5094
다이키치	-14.5094
다재다능	-14.5094
다크니스	-14.5094
달짝지근	-14.5094
대호군	-14.5094
덩그러니	-14.5094
데굴데굴	-14.5094
델로니어스	-14.5094
도나텔로	-14.5094
도니제티	-14.5094
도메니코	-14.5094
도쿠가와	-14.5094
도트리슈	-14.5094
도플갱어	-14.5094
동아일보	-14.5094
두꺼비	-14.5094
둘러본다	-14.5094
드래프트	-14.5094
드러먼드	-14.5094
드리스콜	-14.5094
들썩들썩	-14.5094
디렉터	-14.5094
디카프리오	-14.5094
딜레마	-14.5094
딩동댕	-14.5094
딱따구리	-14.5094
떨어뜨린다	-14.5094
또박또박	-14.5094
뚝딱거리	-14.5094
뚱뚱	-14.5094
라이너스	-14.5094
라이온스	-14.5094
라이온즈	-14.5094
라트비아	-14.5094
라흐마니노프	-14.5094
란데르	-14.5094
래드클리프	-14.5094
래드퍼드	-14.5094
래프팅	-14.5094
랜즈엔드	-14.5094
램버트	-14.5094
레녹스	-14.5094
레지스탕스	-14.5094
레퀴엠	-14.5094
레티시아	-14.5094
렌터카	-14.5094
로그아웃	-14.5094
로렐라이	-14.5094
로마노프	-14.5094
롤런드	-14.5094
롤플레잉	-14.5094
루브르	-14.5094
룬드그렌	-14.5094
룸비니	-14.5094
류화영	-14.5094
르완다	-14.5094
리바운드	-14.5094
리비에라	-14.5094
리턴즈	-14.5094
리하르트	-14.5094
리히터	-14.5094
마네킹	-14.5094
마르가레트	-14.5094
마르세유	-14.5094
마리오네트	-14.5094
마멀레이드	-14.5094
마스코트	-14.5094
마스트리흐트	-14.5094
마슬라니	-14.5094
마에스트라	-14.5094
마우리치오	-14.5094
마운틴	-14.5094
마츠무라	-14.5094
마츠미야	-14.5094
마츠시마	-14.5094
마커스	-14.5094
마케팅	-14.5094
마키무라	-14.5094
마틸드	-14.5094
막달레나	-14.5094
말코비치	-14.5094
망가뜨린	-14.5094
망설임	-14.5094
매니토바주	-14.5094
매머드	-14.5094
매몰차	-14.5094
매스컴	-14.5094
매지컬	-14.5094
매카트니	-14.5094
맥더모트	-14.5094
맥도맨드	-14.5094
맥브라이드	-14.5094
맥시멈	-14.5094
맥어보이	-14.5094
맥커너히	-14.5094
맥켈런	-14.5094
맥크리	-14.5094
맹렬히	-14.5094
머무른다	-14.5094
머저리	-14.5094
멋모르고	-14.5094
메갈로돈	-14.5094
메소드	-14.5094
메신저	-14.5094
메트로폴리스	-14.5094
멕	-14.5094
멜버른	-14.5094
모더니즘	-14.5094
모란디	-14.5094
모랄레스	-14.5094
모로즈미	-14.5094
모차르트	-14.5094
몬카다	-14.5094
몬타나	-14.5094
몬태규	-14.5094
몬토야	-14.5094
몬트로즈	-14.5094
몬트리올	-14.5094
무너뜨린	-14.5094
무네타카	-14.5094
무르만스크	-14.5094
무소불위	-14.5094
무찔러	-14.5094
문동환	-14.5094
물러난다	-14.5094
미구엘	-14.5094
미끄러지	-14.5094
미슐랭	-14.5094
미시시피	-14.5094
미조구치	-14.5094
미조바타	-14.5094
미카엘	-14.5094
밀리언셀러	-14.5094
밀크티	-14.5094
바그다드	-14.5094
바노비치	-14.5094
바둑판	-14.5094
바랍니다	-14.5094
바르셀로나	-14.5094
바이샬리	-14.5094
바커스	-14.5094
바퀴벌레	-14.5094
바텐더	-14.5094
바틀렛	-14.5094
박근형	-14.5094
박근혜	-14.5094
박봉준	-14.5094
박살났	-14.5094
박신혜	-14.5094
박옥선	-14.5094
박용우	-14.5094
박웅철	-14.5094
박재홍	-14.5094
박종철	-14.5094
박찬열	-14.5094
박테리아	-14.5094
박혜수	-14.5094
박효주	-14.5094
반데라스	-14.5094
발렌티	-14.5094
방방곡곡	-14.5094
방세옥	-14.5094
뱅크시	-14.5094
버터플라이	-14.5094
버터필드	-14.5094
베네딕도	-14.5094
베네딕토	-14.5094
베드퍼드	-14.5094
베르무트	-14.5094
베오그라드	-14.5094
베이시스트	-14.5094
베타니아	-14.5094
벤트리스	-14.5094
복슬복슬	-14.5094
볼셰비키	-14.5094
봄여름가을겨울	-14.5094
부끄러움	-14.5094
부메랑	-14.5094
부스럭	-14.5094
부엉부엉	-14.5094
불나방스타쏘세지클럽	-14.5094
불쌍히	-14.5094
브라이튼	-14.5094
브래너	-14.5094
브랜든	-14.5094
브랜치	-14.5094
브랜트	-14.5094
브램블	-14.5094
브렌단	-14.5094
브리지스	-14.5094
브릿지스	-14.5094
블라이스	-14.5094
블라인드	-14.5094
블런트	-14.5094
비셔스	-14.5094
비스바덴	-14.5094
비트코인	-14.5094
비틀거리	-14.5094
빈털터리	-14.5094
빈틈없	-14.5094
빌헬름	-14.5094
빠뜨릴	-14.5094
빼곡히	-14.5094
빼돌려	-14.5094
빼앗길까	-14.5094
삐거덕거리	-14.5094
삐걱대	-14.5094
사나운	-14.5094
사루가쿠	-14.5094
사보타주	-14.5094
사와무라	-14.5094
살바도르	-14.5094
삼청동	-14.5094
상트페테르부르크	-14.5094
상파울루	-14.5094
색소폰	-14.5094
샌드위치	-14.5094
샤를로트	-14.5094
샤머니즘	-14.5094
샹젤리제	-14.5094
서러운데	-14.5094
서윤복	-14.5094
서프라이즈	-14.5094
세컨드	-14.5094
센세이션	-14.5094
셀레나	-14.5094
셀로니어스	-14.5094
셰이프	-14.5094
소노코	-14.5094
소사이어티	-14.5094
손석희	-14.5094
송재룡	-14.5094
송전탑	-14.5094
송정욱	-14.5094
쇠데르텔리에	-14.5094
쇼스타코비치	-14.5094
순순히	-14.5094
순진무구	-14.5094
슈가랜드	-14.5094
슈바이처	-14.5094
슈왈제네거	-14.5094
슈퍼마켓	-14.5094
스네이크	-14.5094
스리데비	-14.5094
스매싱	-14.5094
스완슨	-14.5094
스워스	-14.5094
스카르파	-14.5094
스캔런	-14.5094
스콜세지	-14.5094
스쿠버	-14.5094
스테고사우루스	-14.5094
스테이시	-14.5094
스테이플스	-14.5094
스테인드	-14.5094
스토브	-14.5094
스톡홀름	-14.5094
스트로크	-14.5094
스파링	-14.5094
스포팅	-14.5094
슬그머니	-14.5094
슬레이터	-14.5094
시끄러운	-14.5094
시노미야	-14.5094
시니컬	-14.5094
시라이시	-14.5094
시맨틱	-14.5094
시바사키	-14.5094
시얼샤	-14.5094
시즈오카	-14.5094
시추에이션	-14.5094
시큰둥	-14.5094
신현규	-14.5094
신혜선	-14.5094
실루엣	-14.5094
심규선	-14.5094
심포닉	-14.5094
싱크로나이즈드	-14.5094
싱크홀	-14.5094
싹쓸이	-14.5094
쑥맥	-14.5094
쓰다주쿠	-14.5094
쓰러뜨려	-14.5094
쓰러질	-14.5094
쓰러트리	-14.5094
아가츠마	-14.5094
아득바득	-14.5094
아레나스	-14.5094
아르메니아	-14.5094
아르테미스	-14.5094
아리스토텔레스	-14.5094
아마추어	-14.5094
아부다비	-14.5094
아스가르드	-14.5094
아옹다옹	-14.5094
아우슈비츠	-14.5094
아웃도어	-14.5094
아웃사이드	-14.5094
아카풀코	-14.5094
아쿠아리움	-14.5094
아키하바라	-14.5094
아킬레	-14.5094
아펜젤러	-14.5094
안나푸르나	-14.5094
안달루시아	-14.5094
안드로메다	-14.5094
안드로이드	-14.5094
안타까움	-14.5094
알베르토	-14.5094
알카트라즈	-14.5094
암브로지	-14.5094
암스테르담	-14.5094
앙구스	-14.5094
앙증맞	-14.5094
앞설수록	-14.5094
애너벨	-14.5094
애들레이드	-14.5094
애리조나주	-14.5094
애이불비	-14.5094
애창곡	-14.5094
애킨슨	-14.5094
앤드루	-14.5094
앤트워프	-14.5094
야쿠쇼	-14.5094
양동근	-14.5094
양리칭	-14.5094
어루만져	-14.5094
어처구니없	-14.5094
어쿠스틱	-14.5094
언드라시	-14.5094
언월도	-14.5094
얽히고설킨	-14.5094
엄백호	-14.5094
엄태구	-14.5094
에반젤린	-14.5094
에볼루션	-14.5094
에스퀴벨	-14.5094
에이프럴	-14.5094
엑소시스트	-14.5094
엑스트라	-14.5094
엔터테이너	-14.5094
엘레나	-14.5094
엘리베이터	-14.5094
연거푸	-14.5094
염치없	-14.5094
염혜란	-14.5094
영락제	-14.5094
예체능	-14.5094
오거스틴	-14.5094
오노레	-14.5094
오다기리	-14.5094
오듀본	-14.5094
오디세이	-14.5094
오디아르	-14.5094
오랑캐	-14.5094
오를레앙	-14.5094
오리무중	-14.5094
오리엔트	-14.5094
오순도순	-14.5094
오컬트	-14.5094
오코넬	-14.5094
오페레타	-14.5094
옥스퍼드	-14.5094
옥슨볼드	-14.5094
올랐으며	-14.5094
올랭피아	-14.5094
올려다볼	-14.5094
올림피아드	-14.5094
옵소서	-14.5094
옵저버	-14.5094
옹달샘	-14.5094
와이티티	-14.5094
완강히	-14.5094
왈가닥	-14.5094
요령껏	-14.5094
요하네스	-14.5094
우덕순	-14.5094
우라시마	-14.5094
우러러보	-14.5094
우뢰매	-14.5094
우르스	-14.5094
우즈베키스탄	-14.5094
움켜쥐	-14.5094
워즈워스	-14.5094
위니펙	-14.5094
위르겐	-14.5094
위켄드	-14.5094
윈스티드	-14.5094
유덕화	-14.5094
유동룡	-14.5094
유디트	-14.5094
윤문영	-14.5094
윤석열	-14.5094
윤시윤	-14.5094
윤현경	-14.5094
으르렁	-14.5094
이미테이션	-14.5094
이소로쿠	-14.5094
이케마츠	-14.5094
이타가키	-14.5094
인비저블	-14.5094
인정사정없	-14.5094
인크레더블	-14.5094
인터렉션	-14.5094
인테리어	-14.5094
일거수일투족	-14.5094
일라이저	-14.5094
일사불란	-14.5094
임선빈	-14.5094
임파서블	-14.5094
임현제	-14.5094
잇따른	-14.5094
잉그리드	-14.5094
자각몽	-14.5094
자격지심	-14.5094
자연스레	-14.5094
자초지종	-14.5094
자코뱅	-14.5094
장난스레	-14.5094
장재희	-14.5094
재스퍼	-14.5094
저글링	-14.5094
저널리즘	-14.5094
저드슨	-14.5094
저체온증	-14.5094
정성스레	-14.5094
제페토	-14.5094
제피렐리	-14.5094
조광춘	-14.5094
조달환	-14.5094
조르다노	-14.5094
조르조	-14.5094
조르쥬	-14.5094
존오그로츠	-14.5094
좁디좁	-14.5094
주객전도	-14.5094
주종혁	-14.5094
줄리앙	-14.5094
중화민국	-14.5094
지그몬드	-14.5094
지오반니	-14.5094
찌그러진	-14.5094
차곡차곡	-14.5094
차디찬	-14.5094
차범석	-14.5094
찬찬히	-14.5094
찰랑이	-14.5094
채프먼	-14.5094
책임져야	-14.5094
청설모	-14.5094
체인지오버	-14.5094
초콜릿	-14.5094
최귀화	-14.5094
최민식	-14.5094
최병모	-14.5094
최우식	-14.5094
최희서	-14.5094
출렁이	-14.5094
충청도	-14.5094
측천무후	-14.5094
치외법권	-14.5094
칠전팔기	-14.5094
칭기즈	-14.5094
카를로타	-14.5094
카멜레온	-14.5094
카사블랑카	-14.5094
카와구치	-14.5094
카운슬러	-14.5094
카운터	-14.5094
카진스키	-14.5094
카츠라기	-14.5094
카타르시스	-14.5094
카타콤	-14.5094
카트린	-14.5094
칼리스토	-14.5094
칼리오페	-14.5094
칼립소	-14.5094
캐니언	-14.5094
캐스터네츠	-14.5094
캐터린	-14.5094
캐플러	-14.5094
커머스	-14.5094
커뮤니티	-14.5094
커밍아웃	-14.5094
컨디션	-14.5094
컨테이너	-14.5094
컬러풀	-14.5094
컴필레이션	-14.5094
케네스	-14.5094
케슬러	-14.5094
케임브리지	-14.5094
켄드라	-14.5094
코디네이터	-14.5094
코랄리나	-14.5094
코르뷔지에	-14.5094
코르사주	-14.5094
코르셋	-14.5094
코스트너	-14.5094
코왈스키	-14.5094
코요테	-14.5094
코퍼레이션	-14.5094
코펜하겐	-14.5094
콘래드	-14.5094
콘스탄스	-14.5094
콘체르토	-14.5094
콘크리트	-14.5094
콜드플레이	-14.5094
콜럼버스	-14.5094
콜로세움	-14.5094
콤포스텔라	-14.5094
콩닥콩닥	-14.5094
쿠로사와	-14.5094
쿠알라룸푸르	-14.5094
쿵작쿵작	-14.5094
큐레이터	-14.5094
크라운	-14.5094
크랜스턴	-14.5094
크랜스톤	-14.5094
크레타	-14.5094
크로니클	-14.5094
크루아상	-14.5094
크메르	-14.5094
클라리넷	-14.5094
클라리사	-14.5094
클라이밍	-14.5094
클라이언트	-14.5094
클레망	-14.5094
클로즈업	-14.5094
키노피오	-14.5094
키얼스틴	-14.5094
타란티노	-14.5094
타케시	-14.5094
타케우치	-14.5094
타티아나	-14.5094
터집니다	-14.5094
테러리즘	-14.5094
테루코	-14.5094
테아트르	-14.5094
텔레파시	-14.5094
토도로키	-14.5094
토론회	-14.5094
토마토	-14.5094
톰린슨	-14.5094
투닥거리	-14.5094
튀어나와	-14.5094
트라볼타	-14.5094
트라이앵글	-14.5094
트래블	-14.5094
트래킹	-14.5094
트럼불	-14.5094
트레이드	-14.5094
트레일러	-14.5094
트렌드	-14.5094
트리케라톱스	-14.5094
트위터	-14.5094
특효약	-14.5094
티파니	-14.5094
파넬라	-14.5094
파닥파닥	-14.5094
파비아노	-14.5094
파스칼	-14.5094
파스텔	-14.5094
파운드	-14.5094
파울러	-14.5094
파헤쳤	-14.5094
팔레르모	-14.5094
팔룸보	-14.5094
팡타그뤼엘	-14.5094
패러독스	-14.5094
패럴림픽	-14.5094
패틴슨	-14.5094
퍼시픽	-14.5094
퍼커션	-14.5094
페가수스	-14.5094
페니와이즈	-14.5094
페루초	-14.5094
페르난도	-14.5094
페르닐라	-14.5094
페르손	-14.5094
페미니즘	-14.5094
펜타곤	-14.5094
펠르랭	-14.5094
포르투갈	-14.5094
포세이돈	-14.5094
포틀랜드	-14.5094
표트르	-14.5094
프놈펜	-14.5094
프라이드	-14.5094
프라이멀	-14.5094
프라이팬	-14.5094
프락치	-14.5094
프랑소아	-14.5094
프랑크푸르트	-14.5094
프랭코	-14.5094
프레이트	-14.5094
프로그래머	-14.5094
프로그래밍	-14.5094
프로스페르	-14.5094
프로파일러	-14.5094
프록시마	-14.5094
프론트	-14.5094
프리마돈나	-14.5094
프리미엄	-14.5094
플래너	-14.5094
플래카드	-14.5094
플래티넘	-14.5094
플루거	-14.5094
피노체트	-14.5094
피앙세	-14.5094
피지컬	-14.5094
필터링	-14.5094
하우스키퍼	-14.5094
하인리히	-14.5094
핸드볼	-14.5094
허드슨	-14.5094
허우적대	-14.5094
허준석	-14.5094
허친슨	-14.5094
허투루	-14.5094
허풍쟁이	-14.5094
허프만	-14.5094
헤라클레스	-14.5094
헤럴드	-14.5094
헤로디아	-14.5094
헤이즐	-14.5094
헬무트	-14.5094
형형색색	-14.5094
혜광학교	-14.5094
호레이쇼	-14.5094
호르몬	-14.5094
호의호식	-14.5094
홍완표	-14.5094
홍희관	-14.5094
화기애애	-14.5094
황병주	-14.5094
황태환	-14.5094
횡설수설	-14.5094
후지와라	-14.5094
후쿠모토	-14.5094
후쿠시마	-14.5094
휘두른다	-14.5094
휘몰아칠	-14.5094
휘청거리	-14.5094
휴머노이드	-14.5094
휴머니즘	-14.5094
흐물거리	-14.5094
흐트러지	-14.5094
흔쾌히	-14.5094
흥얼거리	-14.5094
희노애락	-14.5094
히가시노	-14.5094
히마와리	-14.5094
히요시	-14.5094
히이라기	-14.5094
▁Dynami	-14.5094
▁MUS	-14.5094
가래떡	-14.5094
간디니	-14.5094
개츠비	-14.5094
거식증	-14.5094
계열사	-14.5094
곰팡이	-14.5094
교과목	-14.5094
그린란드	-14.5094
극진히	-14.5094
급발진	-14.5094
김갑수	-14.5094
김남우	-14.5094
김무열	-14.5094
김상호	-14.5094
김수환	-14.5094
김재중	-14.5094
김태훈	-14.5094
김홍기	-14.5094
까다로운	-14.5094
나이트메어	-14.5094
나카야마	-14.5094
나효신	-14.5094
남포동	-14.5094
남호현	-14.5094
넘길수록	-14.5094
넘사벽	-14.5094
느와르	-14.5094
다이어트	-14.5094
대물림	-14.5094
도미니카	-14.5094
돌려줄	-14.5094
듀엣	-14.5094
드려요	-14.5094
들킬까	-14.5094
레거시	-14.5094
리카르도	-14.5094
마모루	-14.5094
막연히	-14.5094
매그레	-14.5094
명백히	-14.5094
문창길	-14.5094
미노스	-14.5094
미야노	-14.5094
미카미	-14.5094
민도희	-14.5094
박성훈	-14.5094
발리스타	-14.5094
발키리	-14.5094
배관공	-14.5094
베네치	-14.5094
북적거리	-14.5094
브누아	-14.5094
브루인	-14.5094
비지니스	-14.5094
사일러스	-14.5094
서치라이트	-14.5094
성모마리아	-14.5094
소네트	-14.5094
소리소문없이	-14.5094
손병호	-14.5094
손호준	-14.5094
수임료	-14.5094
스티비	-14.5094
시나몬	-14.5094
시라토리	-14.5094
시발점	-14.5094
시사점	-14.5094
시즈미	-14.5094
신창역	-14.5094
심우장	-14.5094
아구몬	-14.5094
아비게일	-14.5094
아케히	-14.5094
안숙선	-14.5094
알레포	-14.5094
알카라스	-14.5094
알프리드	-14.5094
애리조	-14.5094
야누스	-14.5094
에포닌	-14.5094
엑셀	-14.5094
여랑위	-14.5094
영축산	-14.5094
오스틴	-14.5094
오채근	-14.5094
오타쿠	-14.5094
올드보이	-14.5094
요동치	-14.5094
요시코	-14.5094
울타리	-14.5094
워리어	-14.5094
유니크	-14.5094
이노하라	-14.5094
이오시프	-14.5094
이택근	-14.5094
이혜옥	-14.5094
일러스트	-14.5094
임원희	-14.5094
자아도취	-14.5094
장국영	-14.5094
장재영	-14.5094
재스민	-14.5094
정소민	-14.5094
조너선	-14.5094
조르바	-14.5094
조서연	-14.5094
주춤거리	-14.5094
줄리언	-14.5094
중얼거린다	-14.5094
진열장	-14.5094
차가워진	-14.5094
카니발	-14.5094
카스트로	-14.5094
켜켜이	-14.5094
쿄이치	-14.5094
크라임	-14.5094
클라스	-14.5094
타츠야	-14.5094
타쿠야	-14.5094
태연히	-14.5094
테오도르	-14.5094
토마신	-14.5094
틀어쥐	-14.5094
티모스	-14.5094
팔라딘	-14.5094
팔코네	-14.5094
프로세스	-14.5094
피츠제럴드	-14.5094
필로폰	-14.5094
하층민	-14.5094
할망구	-14.5094
해롤드	-14.5094
허황되	-14.5094
휘둘리	-14.5094
히다카	-14.5094
골칫덩어리	-14.5094
굿바이	-14.5094
기왕지사	-14.5094
김사모	-14.5094
김상중	-14.5094
꼽힌다	-14.5094
꿈틀대	-14.5094
끌어내리	-14.5094
난장판	-14.5094
남사당	-14.5094
남서쪽	-14.5094
다미앙	-14.5094
다져온	-14.5094
다혈질	-14.5094
도덕극	-14.5094
도미니크	-14.5094
때려잡	-14.5094
리야드	-14.5094
면류관	-14.5094
벌여온	-14.5094
보따리	-14.5094
볼품없	-14.5094
부적절	-14.5094
북악산	-14.5094
비켜나	-14.5094
빨치산	-14.5094
서동시집	-14.5094
선샤인	-14.5094
성북동	-14.5094
스러진	-14.5094
스위니	-14.5094
아메드	-14.5094
아브드	-14.5094
안서현	-14.5094
엔리코	-14.5094
오아시스	-14.5094
오필리어	-14.5094
유권자	-14.5094
윤동주	-14.5094
윤정만	-14.5094
일러바치	-14.5094
자괴감	-14.5094
자작극	-14.5094
정지환	-14.5094
줄리엔	-14.5094
지오바니	-14.5094
쳐부수	-14.5094
카미야	-14.5094
칼라스	-14.5094
코니시	-14.5094
코사카	-14.5094
콜로라도	-14.5094
클로디	-14.5094
타마요	-14.5094
테라스	-14.5094
틈틈이	-14.5094
파밀리아	-14.5094
플레어	-14.5094
하드코어	-14.5094
허가윤	-14.5094
헤수스	-14.5094
호박죽	-14.5094
호치민	-14.5094
깊어진다	-14.5094
깜깜	-14.5094
납득	-14.5094
내세울	-14.5094
누를수록	-14.5094
다녀왔	-14.5094
다카베	-14.5094
마할리아	-14.5094
몬태나	-14.5094
바야르	-14.5094
방범대	-14.5094
비너스	-14.5094
서글퍼	-14.5094
서번트	-14.5094
성대모사	-14.5094
스팅어	-14.5094
승로반	-14.5094
아무래도	-14.5094
아칸소	-14.5094
아테네	-14.5094
안용선	-14.5094
애거서	-14.5094
양소민	-14.5094
엘리어트	-14.5094
유기동물	-14.5094
윤가현	-14.5094
이봉근	-14.5094
잡아먹혔	-14.5094
장명준	-14.5094
저절로	-14.5094
척추뼈	-14.5094
카사네	-14.5094
크레이그	-14.5094
타나베	-14.5094
타카하시	-14.5094
파울로	-14.5094
포티아	-14.5094
피콜로	-14.5094
한승윤	-14.5094
pen	-14.5094
▁Cine	-14.5094
가격표	-14.5094
가스파르	-14.5094
계엄군	-14.5094
그만둔다	-14.5094
기다려도	-14.5094
기다려야	-14.5094
기다립니다	-14.5094
김예은	-14.5094
끄집어낸다	-14.5094
끌어들여	-14.5094
끌어올린다	-14.5094
끼친다는	-14.5094
나즈막	-14.5094
날아올랐	-14.5094
내릴까	-14.5094
녹아든	-14.5094
논두렁	-14.5094
농작물	-14.5094
눈칫밥	-14.5094
다가올수록	-14.5094
닥쳐올	-14.5094
단단히	-14.5094
단젤로	-14.5094
덩케르크	-14.5094
돌아다닌다	-14.5094
드러냈	-14.5094
떠오릅니다	-14.5094
떨어뜨려	-14.5094
라자루스	-14.5094
라파스	-14.5094
러해시	-14.5094
로버츠	-14.5094
료스케	-14.5094
마키노하라	-14.5094
만토바	-14.5094
메데인	-14.5094
메를린	-14.5094
모바일	-14.5094
무너졌	-14.5094
무찌른다	-14.5094
미성년자	-14.5094
바크스	-14.5094
박한영	-14.5094
백귀야행	-14.5094
버거운데	-14.5094
버거워	-14.5094
번번히	-14.5094
별안간	-14.5094
부딪쳐	-14.5094
부러워	-14.5094
분신술	-14.5094
비닐봉지	-14.5094
사리사욕	-14.5094
사면초가	-14.5094
사직야구장	-14.5094
속삭였	-14.5094
승용차	-14.5094
시외버스	-14.5094
신신당부	-14.5094
심부전	-14.5094
싹튼다	-14.5094
쏟아졌	-14.5094
쓰러뜨린다	-14.5094
쓸어버릴	-14.5094
아이비리그	-14.5094
악전고투	-14.5094
양시영	-14.5094
양조위	-14.5094
엇갈림	-14.5094
엇박자	-14.5094
연산군	-14.5094
오연서	-14.5094
오타니	-14.5094
용접공	-14.5094
울화통	-14.5094
위풍당당	-14.5094
이마이즈미	-14.5094
장학퀴즈	-14.5094
절찬리	-14.5094
접견실	-14.5094
접어드	-14.5094
좋아한다며	-14.5094
주경진	-14.5094
줄행랑	-14.5094
즐거워야	-14.5094
지윤미	-14.5094
첩첩	-14.5094
청문회	-14.5094
청취율	-14.5094
초승달	-14.5094
최양업	-14.5094
케이틀린	-14.5094
킨나만	-14.5094
타구치	-14.5094
터뜨렸	-14.5094
터트려	-14.5094
터트린	-14.5094
트레이닝	-14.5094
퍼집니다	-14.5094
포복절도	-14.5094
프레데릭	-14.5094
프리미어	-14.5094
해리슨	-14.5094
협주곡	-14.5094
호들갑	-14.5094
강간범	-14.5094
광합성	-14.5094
내친김	-14.5094
다다를수록	-14.5094
닥칠까	-14.5094
도루묵	-14.5094
도파민	-14.5094
라일락	-14.5094
마취제	-14.5094
물려준	-14.5094
반동분자	-14.5094
방패막이	-14.5094
버틴다	-14.5094
부득이	-14.5094
불어닥치	-14.5094
불효자	-14.5094
사야카	-14.5094
사에구사	-14.5094
산신제	-14.5094
습득	-14.5094
쏟아진다	-14.5094
아랑곳	-14.5094
악천후	-14.5094
야니크	-14.5094
오건호	-14.5094
음주운전	-14.5094
이누야마	-14.5094
잊어버렸	-14.5094
추켜세워	-14.5094
코르그	-14.5094
코카인	-14.5094
타개책	-14.5094
타오카	-14.5094
패트리샤	-14.5094
회계부	-14.5094
교과서	-14.5095
구매자	-14.5095
권오중	-14.5095
김병지	-14.5095
넘나든다	-14.5095
다정다감	-14.5095
달아오른	-14.5095
도노반	-14.5095
돌아옵니다	-14.5095
뒤틀렸	-14.5095
디아즈	-14.5095
를르슈	-14.5095
메시나	-14.5095
미망인	-14.5095
바라나시	-14.5095
버지니아	-14.5095
범법자	-14.5095
보신탕	-14.5095
삼십육계	-14.5095
수족관	-14.5095
썩인다	-14.5095
얼치기	-14.5095
에크하트	-14.5095
예이츠	-14.5095
올드만	-14.5095
우에노	-14.5095
중공업	-14.5095
청와대	-14.5095
칼로타	-14.5095
타임아웃	-14.5095
페르시아인	-14.5095
검정고시	-14.5095
고창석	-14.5095
그레천	-14.5095
납니다	-14.5095
단조로운	-14.5095
더럽힌	-14.5095
데자키	-14.5095
물려받	-14.5095
백아연	-14.5095
섭섭	-14.5095
소리쳐도	-14.5095
순교자	-14.5095
숨겨야만	-14.5095
아델라	-14.5095
암벽등반	-14.5095
에레보스	-14.5095
연금술사	-14.5095
원두막	-14.5095
은근히	-14.5095
차인표	-14.5095
타나카	-14.5095
하정례	-14.5095
흡입력	-14.5095
김종분	-14.5095
담아냈	-14.5095
대여점	-14.5095
대학원생	-14.5095
덮쳐온	-14.5095
마신다는	-14.5095
망설일	-14.5095
모터사이클	-14.5095
무릅쓴	-14.5095
바이올린	-14.5095
배교자	-14.5095
보너스	-14.5095
봐야겠어요	-14.5095
분화구	-14.5095
빌게이츠	-14.5095
상비군	-14.5095
상여소리	-14.5095
세비니	-14.5095
속상함	-14.5095
슈이치	-14.5095
스티브잡스	-14.5095
시달려도	-14.5095
신출내기	-14.5095
어시스트	-14.5095
엄습	-14.5095
오구리	-14.5095
외유내강	-14.5095
의협심	-14.5095
지아장커	-14.5095
쫓겨났	-14.5095
컴뱃	-14.5095
코스프레	-14.5095
키요카즈	-14.5095
터뜨린다	-14.5095
튀어나온	-14.5095
호언장담	-14.5095
휩쓸린	-14.5095
군것질	-14.5095
냉랭	-14.5095
눈덩이	-14.5095
덤덤	-14.5095
데비안	-14.5095
동그란	-14.5095
라이덴	-14.5095
라이런스	-14.5095
멘데스	-14.5095
목욕탕	-14.5095
밀어낸다	-14.5095
바다전갈	-14.5095
붕새	-14.5095
사치코	-14.5095
순다족	-14.5095
시래기	-14.5095
알아차림	-14.5095
어우러져	-14.5095
왕십리역	-14.5095
이스트반	-14.5095
잡아냈	-14.5095
태안군	-14.5095
편입생	-14.5095
고천락	-14.5095
남남동	-14.5095
떠오를	-14.5095
레지스	-14.5095
루니툰	-14.5095
마주쳐도	-14.5095
몰아갈	-14.5095
바이올라	-14.5095
반가워	-14.5095
사모님	-14.5095
어지럽	-14.5095
올라선다	-14.5095
장동주	-14.5095
쫓아낸	-14.5095
치러서	-14.5095
치른다	-14.5095
치어리더	-14.5095
칼데아	-14.5095
툰베리	-14.5095
하워드	-14.5095
헨젤	-14.5095
겨눌	-14.5095
늘어난	-14.5095
돌려라	-14.5095
무수히	-14.5095
박해일	-14.5095
벌여야	-14.5095
사격수	-14.5095
세워졌	-14.5095
없앤다는	-14.5095
이종석	-14.5095
자경단	-14.5095
중개업자	-14.5095
크나큰	-14.5095
낙향	-14.5095
남성혐오	-14.5095
넘어져	-14.5095
덤벼라	-14.5095
데스매치	-14.5095
데스플라	-14.5095
리에트	-14.5095
마술피리	-14.5095
명목상	-14.5095
모니터링	-14.5095
몰아붙인다	-14.5095
분리수거	-14.5095
빗방울	-14.5095
스러울까	-14.5095
아드리안느	-14.5095
아미동	-14.5095
움직여	-14.5095
유라시아	-14.5095
윤성모	-14.5095
짓누른다	-14.5095
첨예	-14.5095
치러야	-14.5095
템포	-14.5095
트리스탄	-14.5095
간행물	-14.5095
공들여	-14.5095
구로동	-14.5095
김일두	-14.5095
꺼낼	-14.5095
내지른	-14.5095
러팔로	-14.5095
빚보증	-14.5095
스트레인저	-14.5095
앞장선	-14.5095
위수강	-14.5095
익혔	-14.5095
적정선	-14.5095
줄기세포	-14.5095
차크라	-14.5095
카나리	-14.5095
피로연	-14.5095
김기채	-14.5095
김준한	-14.5095
깨부수	-14.5095
다구요	-14.5095
디에터	-14.5095
로레타	-14.5095
빗나간다	-14.5095
아지른	-14.5095
어림없	-14.5095
적잖이	-14.5095
조선일보	-14.5095
집무실	-14.5095
견제도	-14.5095
디바이스	-14.5095
무정부주의자	-14.5095
벌어질까	-14.5095
열려라	-14.5095
이규형	-14.5095
치지직	-14.5095
카마인	-14.5095
맥케이	-14.5095
멘젤	-14.5095
모지스	-14.5095
모티머	-14.5095
박하경	-14.5095
보디아	-14.5095
보스니아	-14.5095
분식집	-14.5095
셔틀	-14.5095
애교만점	-14.5095
이효제	-14.5095
장판수	-14.5095
하필이면	-14.5095
길러냈	-14.5095
노에미	-14.5095
덴튼	-14.5095
도널드슨	-14.5095
로열티	-14.5095
빈민촌	-14.5095
스코필드	-14.5095
양가휘	-14.5095
일가친척	-14.5095
일그러진	-14.5095
일인칭	-14.5095
소인국	-14.5095
야시마	-14.5095
여중생	-14.5095
이옥선	-14.5095
측근	-14.5095
통지서	-14.5095
퇴출	-14.5095
퍼스널	-14.5095
포도대장	-14.5095
김정은	-14.5095
꼬셔	-14.5095
데일리	-14.5095
들켜서	-14.5095
레밍턴	-14.5095
맨하탄	-14.5095
모신다	-14.5095
순정만화	-14.5095
슈렉	-14.5095
안치소	-14.5095
안하무인	-14.5095
앙헬	-14.5095
잊어버린	-14.5095
팔리아치	-14.5095
하트넷	-14.5095
가겟세	-14.5095
거꾸러진	-14.5095
벼슬	-14.5095
생수병	-14.5095
시누이	-14.5095
아카시	-14.5095
오리콘	-14.5095
펠림	-14.5095
하버드대	-14.5095
흉폭	-14.5095
덮쳤	-14.5095
따돌린	-14.5095
벅스킨	-14.5095
삼국유사	-14.5095
이센스	-14.5095
조도선	-14.5095
주어졌	-14.5095
피어난	-14.5095
홀리스터	-14.5095
ATI	-14.5095
걸어왔	-14.5095
그란데	-14.5095
내다볼	-14.5095
네이션	-14.5095
신하균	-14.5095
아파서	-14.5095
알아봐	-14.5095
자른다	-14.5095
허가서	-14.5095
▁KI	-14.5095
교이치	-14.5095
늘어선	-14.5095
들여보낸다	-14.5095
리만치	-14.5095
베이징	-14.5095
살아생전	-14.5095
이복형	-14.5095
챙긴	-14.5095
파이퍼	-14.5095
헌정사	-14.5095
흑산도	-14.5095
보험료	-14.5095
빠꾸	-14.5095
세비야	-14.5095
셔츠	-14.5095
오리모토	-14.5095
인신공격	-14.5095
즐겨	-14.5095
판때기	-14.5095
허리춤	-14.5095
다코타	-14.5095
물어본	-14.5095
바게트	-14.5095
어차피	-14.5095
와일드혼	-14.5095
듀폰	-14.5095
반역죄	-14.5095
뱅킹	-14.5095
브라이어	-14.5095
이듬해	-14.5095
천상천하	-14.5095
▁Air	-14.5095
글리슨	-14.5095
끌어오	-14.5095
끝장내	-14.5095
남겨졌	-14.5095
들려왔	-14.5095
로웨나	-14.5095
몽롱	-14.5095
방관자	-14.5095
보일러	-14.5095
셔먼	-14.5095
아파치	-14.5095
잡아간다	-14.5095
휴슨	-14.5095
기울여	-14.5095
낙엽	-14.5095
던져준다	-14.5095
부러지	-14.5095
스터링	-14.5095
에도가와	-14.5095
우드하우스	-14.5095
주차장	-14.5095
찾아냈	-14.5095
컴패션	-14.5095
파이팅	-14.5095
프레쉬	-14.5095
녹슨	-14.5095
모지리	-14.5095
배두나	-14.5095
이석형	-14.5095
침착	-14.5095
one	-14.5095
가랑비	-14.5095
다빈치	-14.5095
달려갑니다	-14.5095
레이더망	-14.5095
바그너	-14.5095
바우어	-14.5095
받아들여	-14.5095
배재성	-14.5095
보르도	-14.5095
알아냈	-14.5095
어지럽히	-14.5095
으리오	-14.5095
찔린	-14.5095
착해질	-14.5095
경화증	-14.5095
잡아들인	-14.5095
하마베	-14.5095
냉각	-14.5095
더하멜	-14.5095
맥아더	-14.5095
무연고	-14.5095
바이칼	-14.5095
사대부	-14.5095
엘레인	-14.5095
처량	-14.5095
호쿠토	-14.5095
후일담	-14.5095
낙제점	-14.5095
드루이드교	-14.5095
월화수	-14.5095
풀가동	-14.5095
하세베	-14.5095
고공비행	-14.5095
라이팅	-14.5095
모터쇼	-14.5095
몽염	-14.5095
불평불만	-14.5095
서인화	-14.5095
손아귀	-14.5095
강봉래	-14.5095
납품	-14.5095
데이빗슨	-14.5095
드러날수록	-14.5095
버둥	-14.5095
선보일	-14.5095
앗킨	-14.5095
클레이튼	-14.5095
휴대전화	-14.5095
국과수	-14.5095
백화점	-14.5095
쇼핑백	-14.5095
아소스	-14.5095
오키나와	-14.5095
이드리스	-14.5095
곱슬	-14.5095
만저우리	-14.5095
사운드트랙	-14.5095
오누이	-14.5095
오스만	-14.5095
왈츠	-14.5095
켄타로	-14.5095
탐광	-14.5095
해졌으나	-14.5095
꾸며져	-14.5095
다운로드	-14.5095
당분간	-14.5095
목장갑	-14.5095
중앙아시아	-14.5095
항공모함	-14.5095
po	-14.5095
깜냥	-14.5095
밥상머리	-14.5095
베르사유	-14.5095
괴롭혀	-14.5095
의기양양	-14.5095
컴튼	-14.5095
탐독	-14.5095
토박이	-14.5095
▁Mar	-14.5095
삐삐	-14.5095
암스트롱	-14.5095
찰흙	-14.5095
클리닉	-14.5095
버려둔	-14.5095
굴뚝	-14.5095
끌려갔	-14.5095
사설탐정	-14.5095
송길호	-14.5095
송진우	-14.5095
스케치북	-14.5095
정이든	-14.5095
휴직	-14.5095
실버맨	-14.5095
통성명	-14.5095
다운튼	-14.5095
들국화	-14.5095
쇼맨십	-14.5095
예스맨	-14.5095
이복동생	-14.5095
넘쳐난다	-14.5095
반성문	-14.5095
이시언	-14.5095
이전투구	-14.5095
런타인	-14.5095
뿌까	-14.5095
가로챈	-14.5095
단두대	-14.5095
들려줄	-14.5095
삭발	-14.5095
가라테	-14.5095
귀염둥이	-14.5095
밀어주	-14.5095
빨부리	-14.5095
왈패	-14.5095
흔들림	-14.5095
김아중	-14.5095
루리에	-14.5095
손수건	-14.5095
이화영	-14.5095
납작	-14.5095
삽입곡	-14.5095
상납	-14.5095
초한전쟁	-14.5095
휴업	-14.5095
흔히	-14.5095
이정경	-14.5095
제조법	-14.5095
칭송	-14.5095
묻어나	-14.5095
폭설	-14.5095
피워간다	-14.5095
김의신	-14.5095
등록금	-14.5095
롤빵	-14.5095
뿔테	-14.5095
사무직	-14.5095
쇠사슬	-14.5095
슬퍼질	-14.5095
연체금	-14.5095
조한선	-14.5095
퇴직금	-14.5095
후지코	-14.5095
맞춤법	-14.5095
생채기	-14.5095
신주쿠	-14.5095
일단락	-14.5095
점프력	-14.5095
로코퀸	-14.5095
바지선	-14.5095
브르노	-14.5095
송윤아	-14.5095
싸워왔	-14.5095
퇴학	-14.5095
합니까	-14.5095
갓난아기	-14.5095
명성황후	-14.5095
뽑혔	-14.5095
검거율	-14.5095
퍼런	-14.5095
▁Lu	-14.5095
다그친다	-14.5095
마사오카	-14.5095
알파인	-14.5095
종착역	-14.5095
쪽팔리	-14.5095
향락	-14.5095
포르노	-14.5095
ore	-14.5095
ster	-14.5095
고사하고	-14.5095
버드나무	-14.5095
붙잡혔	-14.5095
세로니	-14.5095
적대감	-14.5095
플로렌스	-14.5095
떨칠	-14.5095
올라설	-14.5095
뒤풀이	-14.5095
삭막	-14.5095
스노우볼	-14.5095
어우러진	-14.5095
이슬라	-14.5095
중도금	-14.5095
지지율	-14.5095
퇴역	-14.5095
프레임	-14.5095
광범위	-14.5095
타이거즈	-14.5095
피부암	-14.5095
대놓고	-14.5095
시그마	-14.5095
최만수	-14.5095
꽃피울	-14.5095
보라색	-14.5095
찾아볼	-14.5095
촌닭	-14.5095
고구려	-14.5095
공들인	-14.5095
근육질	-14.5095
로베르토	-14.5095
박지른다	-14.5095
불사르	-14.5095
심부름센터	-14.5095
잃어버렸	-14.5095
정호석	-14.5095
힌트	-14.5095
갑갑	-14.5095
일리야	-14.5095
책략	-14.5095
홀리데이	-14.5095
히토시	-14.5095
끊어질	-14.5095
무기력증	-14.5095
용의주도	-14.5095
종신형	-14.5095
황량	-14.5095
흉추	-14.5095
끌려간다	-14.5095
다스려	-14.5095
바람막이	-14.5095
빙빙	-14.5095
샌즈	-14.5095
슈크림	-14.5095
잔잔히	-14.5095
낙인찍	-14.5095
맞은편	-14.5095
침술	-14.5095
테크노	-14.5095
넬스	-14.5095
닫혔	-14.5095
받아들일	-14.5095
알아볼	-14.5095
장학금	-14.5095
적임자	-14.5095
곱창	-14.5095
구시가	-14.5095
레텔	-14.5095
로보카	-14.5095
이등병	-14.5095
탐구생활	-14.5095
되새길	-14.5095
울려퍼진	-14.5095
닐슨	-14.5095
자격증	-14.5095
네이트	-14.5095
드럼통	-14.5095
생겨난다	-14.5095
연설문	-14.5095
구두쇠	-14.5095
잡아온	-14.5095
전지훈련	-14.5095
풍광	-14.5095
공수부대	-14.5095
쑥대	-14.5095
풀려난	-14.5095
했을지도	-14.5095
가리봉동	-14.5095
굴욕	-14.5095
사들였	-14.5095
에로틱	-14.5095
엑스포	-14.5095
판매량	-14.5095
골목대장	-14.5095
나카다	-14.5095
능숙	-14.5095
무당벌레	-14.5095
인사이더	-14.5095
장미꽃	-14.5095
정석용	-14.5095
하이에나	-14.5095
현기증	-14.5095
▁Wi	-14.5095
녹용	-14.5095
방화범	-14.5095
안겨준	-14.5095
청룡	-14.5095
신문배달	-14.5095
키이스	-14.5095
합회	-14.5095
뚱보	-14.5095
롤랑	-14.5095
셰린	-14.5095
카라노	-14.5095
타카노	-14.5095
황미영	-14.5095
부르주아	-14.5095
세이레	-14.5095
수목원	-14.5095
ang	-14.5095
매춘	-14.5096
다쳐도	-14.5096
서부극	-14.5096
달려나간다	-14.5096
듀란	-14.5096
올라탈	-14.5096
콘티	-14.5096
헬싱	-14.5096
랭글리	-14.5096
밀려왔	-14.5096
인종주의	-14.5096
조롱거리	-14.5096
쫓아간	-14.5096
휴학	-14.5096
ak	-14.5096
전국노래자랑	-14.5096
침체	-14.5096
컨버스	-14.5096
상층부	-14.5096
침강	-14.5096
파란색	-14.5096
그리워질	-14.5096
납부	-14.5096
네기시	-14.5096
세례식	-14.5096
용감무쌍	-14.5096
마우이	-14.5096
데려갔	-14.5096
로시니	-14.5096
꼬셨	-14.5096
노수산나	-14.5096
댄디	-14.5096
스케일즈	-14.5096
윈난	-14.5096
절도범	-14.5096
팔손이	-14.5096
막아선	-14.5096
에어컨	-14.5096
오리걸음	-14.5096
올라갔	-14.5096
혈액병	-14.5096
이자람	-14.5096
앙티	-14.5096
기시감	-14.5096
▁my	-14.5096
밀수입	-14.5096
비타민	-14.5096
허탈감	-14.5096
냉연	-14.5096
듀공	-14.5096
콩고인	-14.5096
흥망	-14.5096
놀음판	-14.5096
루치아노	-14.5096
뭔데	-14.5096
성산동	-14.5096
폐질환	-14.5096
낙인찍혀	-14.5096
눈엣	-14.5096
뿌듯	-14.5096
생겨버린	-14.5096
삭제	-14.5096
서지후	-14.5096
슬플	-14.5096
김형석	-14.5096
싫어한다	-14.5096
아시안	-14.5096
올라탄	-14.5096
이티리	-14.5096
가야금	-14.5096
대동강	-14.5096
빠질까	-14.5096
샤워실	-14.5096
기노자	-14.5096
사쿠라코	-14.5096
제리코	-14.5096
협찬	-14.5096
미르코	-14.5096
사토코	-14.5096
ste	-14.5096
얼짱	-14.5096
충언	-14.5096
한선화	-14.5096
김굿	-14.5096
딜러	-14.5096
버려질	-14.5096
염증	-14.5096
가른다	-14.5096
김성오	-14.5096
빼돌린	-14.5096
일가견	-14.5096
타이탄	-14.5096
난파선	-14.5096
레빗	-14.5096
도밍고	-14.5096
몰라요	-14.5096
섭식	-14.5096
드리워	-14.5096
연예계	-14.5096
유성우	-14.5096
입장권	-14.5096
데려왔	-14.5096
습작	-14.5096
황선우	-14.5096
족쇄	-14.5096
지워질	-14.5096
클로에	-14.5096
야마모토	-14.5096
이다윗	-14.5096
잡혀왔	-14.5096
궁금해하	-14.5096
동성애	-14.5096
앤젤라	-14.5096
해코지	-14.5096
세이디	-14.5096
얼른	-14.5096
이타미	-14.5096
거물급	-14.5096
모레츠	-14.5096
정이건	-14.5096
원더풀	-14.5096
으세요	-14.5096
경시대회	-14.5096
모넬	-14.5096
종이꽃	-14.5096
변화무쌍	-14.5096
뻔뻔	-14.5096
여관방	-14.5096
유행병	-14.5096
동침	-14.5096
빙벽	-14.5096
올라왔	-14.5096
으악	-14.5096
이경원	-14.5096
찾아올까요	-14.5096
텔리	-14.5096
퓨리	-14.5096
꺼리	-14.5096
장준하	-14.5096
피시방	-14.5096
나키아	-14.5096
내려왔	-14.5096
속앓이	-14.5096
심령술	-14.5096
앉힌다	-14.5096
에이나르	-14.5096
정비공	-14.5096
문학회	-14.5096
소수자	-14.5096
홀아비	-14.5096
세이버	-14.5096
청운	-14.5096
밝힐	-14.5096
풍랑	-14.5096
끼쳐	-14.5096
맨드레이크	-14.5096
미인계	-14.5096
놓칠까	-14.5096
살랑이	-14.5096
호소력	-14.5096
버럭	-14.5096
싸워본	-14.5096
쾌감	-14.5096
트로그	-14.5096
쳐들어온다	-14.5096
로린도	-14.5096
슬슬	-14.5096
여우원숭이	-14.5096
추진력	-14.5096
스카프	-14.5096
녹조	-14.5096
퍼즈	-14.5096
추미애	-14.5096
린샹	-14.5096
망령	-14.5096
저격병	-14.5096
냉정히	-14.5096
당연히	-14.5096
동사무소	-14.5096
명랑히어로	-14.5096
퍼스트	-14.5096
공사판	-14.5096
독룡	-14.5096
소나기	-14.5096
떠다니	-14.5096
래스터	-14.5096
협약	-14.5096
매켄지	-14.5096
유대교	-14.5096
점잖	-14.5096
찾아든	-14.5096
법무부	-14.5096
곡예	-14.5096
장바구니	-14.5096
혼례	-14.5096
국립극장	-14.5096
그리하여	-14.5096
꼬꼬	-14.5096
돈키호테	-14.5096
묘령	-14.5096
비상벨	-14.5096
안내견	-14.5096
터득	-14.5096
관측	-14.5096
묻혔	-14.5096
박힌	-14.5096
거미줄	-14.5096
망각	-14.5096
박진영	-14.5096
샤오난	-14.5096
천상계	-14.5096
그제야	-14.5096
게시물	-14.5096
레예스	-14.5096
무서워했	-14.5096
스무고개	-14.5096
갱스터	-14.5096
충절	-14.5096
레미제라블	-14.5097
엘프	-14.5097
음양사	-14.5097
검찰청	-14.5097
카일라스	-14.5097
결승점	-14.5097
맹활약	-14.5097
전도연	-14.5097
계십니까	-14.5097
오가덴	-14.5097
합중국	-14.5097
보드빌	-14.5097
천장지구	-14.5097
낙인찍힌	-14.5097
로데오	-14.5097
외로워	-14.5097
천만다행	-14.5097
호위병	-14.5097
뉴포트	-14.5097
최상층	-14.5097
격퇴	-14.5097
송운	-14.5097
합당	-14.5097
양로원	-14.5097
툴라	-14.5097
허성태	-14.5097
천장화	-14.5097
os	-14.5097
공동소송	-14.5097
▁Dea	-14.5097
꺼라	-14.5097
방패연	-14.5097
이뤄지는	-14.5097
러윈	-14.5097
유청운	-14.5097
봉명동	-14.5097
섭정	-14.5097
결림	-14.5097
윤미숙	-14.5097
윤혜리	-14.5097
표독	-14.5097
권정열	-14.5097
숙희	-14.5097
염체	-14.5097
버려요	-14.5097
구급차	-14.5097
분열증	-14.5097
간절히	-14.5097
건설업자	-14.5097
섬세히	-14.5097
퇴소	-14.5097
글라이더	-14.5097
전파력	-14.5097
출격	-14.5097
결단력	-14.5097
아키노리	-14.5097
베니니	-14.5097
호크니	-14.5097
스타더스트	-14.5097
찾아드	-14.5097
캔터	-14.5097
빅이슈	-14.5097
키이라	-14.5097
돌파구	-14.5097
황은혜	-14.5097
송설	-14.5097
이명준	-14.5097
뛰쳐나갈	-14.5097
윤선도	-14.5097
타이카	-14.5097
고도성장	-14.5097
갈라요	-14.5097
수호성인	-14.5097
변론	-14.5097
노벨상	-14.5097
삼합	-14.5097
으란	-14.5097
견딜	-14.5097
경제난	-14.5097
녹화	-14.5097
우체부	-14.5097
촉구	-14.5097
흥행작	-14.5097
카오스	-14.5097
여신상	-14.5097
오대산	-14.5097
천지회	-14.5097
플러스	-14.5097
노매드	-14.5097
쿠사마	-14.5097
피맺힌	-14.5097
알라나	-14.5097
처녀	-14.5097
골딩	-14.5097
벤틀리	-14.5097
출입국	-14.5097
매트리스	-14.5097
와르다	-14.5097
포커페이스	-14.5097
소침	-14.5097
변종	-14.5097
선녀님	-14.5097
나타낸다	-14.5097
서지오	-14.5097
축하연	-14.5097
퓨전	-14.5097
코스모	-14.5097
델리아	-14.5097
금액	-14.5097
김지희	-14.5097
미쳤으며	-14.5097
퍼든	-14.5097
플로라이트	-14.5097
불사신	-14.5097
휴전선	-14.5097
티아스	-14.5097
히로미	-14.5097
못마땅히	-14.5097
뿌려	-14.5097
스틸러	-14.5097
유키노리	-14.5097
들어준다	-14.5098
김민호	-14.5098
김재훈	-14.5098
콩가루	-14.5098
김향기	-14.5098
데이터베이스	-14.5098
들어갈수록	-14.5098
감미로운	-14.5098
박정화	-14.5098
박진우	-14.5098
소스케	-14.5098
이은택	-14.5098
이장호	-14.5098
박영석	-14.5098
박희철	-14.5098
테이트	-14.5098
신인왕	-14.5098
피난처	-14.5098
그라시	-14.5098
시집보내	-14.5098
낙타	-14.5098
센티	-14.5098
구자은	-14.5098
자원입대	-14.5098
떨구	-14.5098
엔트로피	-14.5098
보석금	-14.5098
혼맥	-14.5098
목공소	-14.5098
낙담	-14.5098
다이앤	-14.5098
묘석	-14.5098
전일만	-14.5098
총공세	-14.5098
다우니	-14.5098
머문다는	-14.5098
자부심	-14.5098
줍니다	-14.5098
처자식	-14.5098
체르비	-14.5098
청규	-14.5098
직거래	-14.5098
히로키	-14.5098
엄호	-14.5098
현웅	-14.5098
기능공	-14.5098
동맹군	-14.5098
불러일으킨다	-14.5098
이겨냈	-14.5098
rs	-14.5098
건전지	-14.5098
틀어진	-14.5098
버스턴	-14.5098
처벌	-14.5098
평평	-14.5098
뉴저지	-14.5098
좋아해	-14.5098
클리모	-14.5098
▁--	-14.5098
산타클라라	-14.5098
클라인	-14.5098
메말라	-14.5098
실뱅	-14.5098
전은정	-14.5098
클리프	-14.5098
염방	-14.5098
영웅본색	-14.5098
디딜	-14.5098
▁178	-14.5098
래환	-14.5098
모헨	-14.5098
아키타	-14.5098
함성일	-14.5098
냉소	-14.5098
모셔	-14.5098
고두심	-14.5098
나이틀리	-14.5098
데블린	-14.5098
겉잡	-14.5098
응급실	-14.5098
이어졌	-14.5098
낙선	-14.5098
네이비	-14.5098
능통	-14.5098
다를까	-14.5098
주둔군	-14.5098
긴급회의	-14.5098
스컬	-14.5098
씨름	-14.5098
워디	-14.5098
전교생	-14.5098
탐스러운	-14.5098
경영진	-14.5098
텐징	-14.5098
델핀	-14.5098
토모미	-14.5098
교통수단	-14.5098
주전자	-14.5098
캣우먼	-14.5098
딴판	-14.5098
우등생	-14.5098
송희	-14.5098
산시성	-14.5098
현관문	-14.5098
독존	-14.5098
채워졌	-14.5098
파출	-14.5098
동해안	-14.5098
클립	-14.5098
직행	-14.5098
퇴장	-14.5098
희롱	-14.5098
들어갔	-14.5098
이동욱	-14.5098
카우치	-14.5098
짜증	-14.5098
찌든	-14.5098
교령	-14.5099
래곤	-14.5099
책임질	-14.5099
탕웨이	-14.5099
솔잎	-14.5099
북아메리카	-14.5099
솔솔	-14.5099
공순이	-14.5099
뒷조사	-14.5099
신붓	-14.5099
애셔	-14.5099
인턴사원	-14.5099
존덴버	-14.5099
코타로	-14.5099
무력감	-14.5099
법학도	-14.5099
박소진	-14.5099
노동력	-14.5099
프리스타일	-14.5099
외쳤	-14.5099
뛰쳐나간	-14.5099
뭘까요	-14.5099
적신다	-14.5099
맛본다	-14.5099
봉헌	-14.5099
합병	-14.5099
브리프	-14.5099
예멘	-14.5099
오웬스	-14.5099
원더스	-14.5099
행크스	-14.5099
챈스	-14.5099
책임진다	-14.5099
녹음실	-14.5099
잔나비	-14.5099
잊혀져서	-14.5099
플레인	-14.5099
들여라	-14.5099
솔로몬	-14.5099
학촌	-14.5099
무슬림	-14.5099
실례	-14.5099
참으	-14.5099
뒤덮여	-14.5099
김성태	-14.5099
그려냈	-14.5099
퇴치	-14.5099
풍요	-14.5099
그로반	-14.5099
덴치	-14.5099
플럼	-14.5099
김수찬	-14.5099
날아갈	-14.5099
외칠	-14.5099
쿠리아	-14.5099
확대	-14.5099
이디나	-14.5099
낙마	-14.5099
미하라	-14.5099
토슈즈	-14.5099
수배령	-14.5099
슈카	-14.5099
부에나	-14.5099
싸워서	-14.5099
어려워진	-14.5099
떠드	-14.5099
센코	-14.5099
루퍼스	-14.5099
터틀	-14.5099
픽서	-14.5099
교착	-14.5099
일간지	-14.5099
공익	-14.5099
밀가루	-14.5099
변모	-14.5099
생겨서	-14.5099
출범	-14.5099
촌놈	-14.5099
호시바	-14.5099
보고서	-14.5099
얼결	-14.5099
삽화	-14.51
바쳐온	-14.51
이타치	-14.51
가린다는	-14.51
밀입국	-14.51
아카데미상	-14.51
조흔	-14.51
다한증	-14.51
최미애	-14.51
투시력	-14.51
가리킨	-14.51
깨달으며	-14.51
리스본	-14.51
변국	-14.51
팅팅	-14.51
브라이트	-14.51
양육비	-14.51
외로이	-14.51
착용	-14.51
미치루	-14.51
공평	-14.51
소외감	-14.51
엄채	-14.51
초음파	-14.51
히튼	-14.51
따먹	-14.51
략	-15.5038
붕	-15.5051
쑥	-15.5088
뚱	-15.5092
벙	-16.032
꿋	-16.0321
긍	-16.0322
횡	-16.0323
팽	-16.0324
칵	-16.0325
혐	-16.0326
릅	-16.0327
럿	-16.0328
늑	-16.0329
덟	-16.033
댕	-16.0331
탱	-16.0332
퀴	-16.0333
숭	-16.0334
틋	-16.0335
첼	-16.0336
옮	-16.0337
캘	-16.0338
둡	-16.0339
됩	-16.034
낌	-16.0341
깐	-16.0342
셜	-16.0343
궤	-16.0344
렐	-16.0345
챔	-16.0346
캡	-16.0347
렀	-16.0348
깥	-16.0349
뀐	-16.035
괜	-16.0351
쩔	-16.0352
v	-16.0353
핸	-16.0354
븐	-16.0355
맴	-16.0356
렘	-16.0357
뜩	-16.0358
켈	-16.0359
렛	-16.036
럴	-16.0361
녁	-16.0362
껴	-16.0363
켓	-16.0364
룹	-16.0365
둑	-16.0366
펙	-16.0367
쁨	-16.0368
찮	-16.0369
흩	-16.037
%	-16.0371
칙	-16.0372
겼	-16.0373
깝	-16.0374
껏	-16.0375
딪	-16.0376
h	-16.0377
촬	-16.0378
튜	-16.0379
걱	-16.038
뭉	-16.0381
듭	-16.0382
뀌	-16.0383
룻	-16.0384
픔	-16.0385
뢰	-16.0386
렬	-16.0387
랐	-16.0388
흘	-16.0389
웠	-16.039
섯	-16.0391
쁜	-16.0392
얽	-16.0393
슴	-16.0394
멤	-16.0395
렵	-16.0396
떻	-16.0397
념	-16.0398
휩	-16.0399
멸	-16.04
졸	-16.0401
엉	-16.0402
U	-16.0403
떤	-16.0404
ᄇ	-16.0405
좌	-16.0406
훔	-16.0407
둠	-16.0408
농	-16.0409
흐	-16.041
압	-16.0411
끔	-16.0412
>	-16.0413
릴	-16.0414
페	-16.0415
펼	-16.0416
활	-16.0417
특	-16.0418
쟁	-16.0419
‘	-16.042
